// Auto-generated by RecoverPath edge trainer
// Include this file in your ESP32C6 firmware project
#include "cough_model_data.h"

const unsigned char g_cough_model_data[] = {
  0x20, 0x00, 0x00, 0x00, 0x54, 0x46, 0x4c, 0x33, 0x00, 0x00, 0x00, 0x00,
  0x14, 0x00, 0x20, 0x00, 0x1c, 0x00, 0x18, 0x00, 0x14, 0x00, 0x10, 0x00,
  0x0c, 0x00, 0x00, 0x00, 0x08, 0x00, 0x04, 0x00, 0x14, 0x00, 0x00, 0x00,
  0x1c, 0x00, 0x00, 0x00, 0x84, 0x00, 0x00, 0x00, 0xdc, 0x00, 0x00, 0x00,
  0x54, 0x0f, 0x00, 0x00, 0x64, 0x0f, 0x00, 0x00, 0x70, 0x2e, 0x00, 0x00,
  0x03, 0x00, 0x00, 0x00, 0x01, 0x00, 0x00, 0x00, 0x04, 0x00, 0x00, 0x00,
  0x76, 0xed, 0xff, 0xff, 0x0c, 0x00, 0x00, 0x00, 0x1c, 0x00, 0x00, 0x00,
  0x3c, 0x00, 0x00, 0x00, 0x0f, 0x00, 0x00, 0x00, 0x73, 0x65, 0x72, 0x76,
  0x69, 0x6e, 0x67, 0x5f, 0x64, 0x65, 0x66, 0x61, 0x75, 0x6c, 0x74, 0x00,
  0x01, 0x00, 0x00, 0x00, 0x04, 0x00, 0x00, 0x00, 0x98, 0xff, 0xff, 0xff,
  0x21, 0x00, 0x00, 0x00, 0x04, 0x00, 0x00, 0x00, 0x08, 0x00, 0x00, 0x00,
  0x6f, 0x75, 0x74, 0x70, 0x75, 0x74, 0x5f, 0x30, 0x00, 0x00, 0x00, 0x00,
  0x01, 0x00, 0x00, 0x00, 0x04, 0x00, 0x00, 0x00, 0x7e, 0xed, 0xff, 0xff,
  0x04, 0x00, 0x00, 0x00, 0x05, 0x00, 0x00, 0x00, 0x69, 0x6e, 0x70, 0x75,
  0x74, 0x00, 0x00, 0x00, 0x02, 0x00, 0x00, 0x00, 0x34, 0x00, 0x00, 0x00,
  0x04, 0x00, 0x00, 0x00, 0xdc, 0xff, 0xff, 0xff, 0x24, 0x00, 0x00, 0x00,
  0x04, 0x00, 0x00, 0x00, 0x13, 0x00, 0x00, 0x00, 0x43, 0x4f, 0x4e, 0x56,
  0x45, 0x52, 0x53, 0x49, 0x4f, 0x4e, 0x5f, 0x4d, 0x45, 0x54, 0x41, 0x44,
  0x41, 0x54, 0x41, 0x00, 0x08, 0x00, 0x0c, 0x00, 0x08, 0x00, 0x04, 0x00,
  0x08, 0x00, 0x00, 0x00, 0x23, 0x00, 0x00, 0x00, 0x04, 0x00, 0x00, 0x00,
  0x13, 0x00, 0x00, 0x00, 0x6d, 0x69, 0x6e, 0x5f, 0x72, 0x75, 0x6e, 0x74,
  0x69, 0x6d, 0x65, 0x5f, 0x76, 0x65, 0x72, 0x73, 0x69, 0x6f, 0x6e, 0x00,
  0x25, 0x00, 0x00, 0x00, 0x74, 0x0e, 0x00, 0x00, 0x6c, 0x0e, 0x00, 0x00,
  0x58, 0x0e, 0x00, 0x00, 0x44, 0x0e, 0x00, 0x00, 0x30, 0x0e, 0x00, 0x00,
  0x28, 0x0e, 0x00, 0x00, 0x14, 0x0e, 0x00, 0x00, 0xf8, 0x0d, 0x00, 0x00,
  0xdc, 0x0d, 0x00, 0x00, 0xc0, 0x0d, 0x00, 0x00, 0x9c, 0x0d, 0x00, 0x00,
  0xec, 0x0c, 0x00, 0x00, 0x5c, 0x0c, 0x00, 0x00, 0x4c, 0x08, 0x00, 0x00,
  0xbc, 0x07, 0x00, 0x00, 0xac, 0x01, 0x00, 0x00, 0x5c, 0x01, 0x00, 0x00,
  0x1c, 0x01, 0x00, 0x00, 0x14, 0x01, 0x00, 0x00, 0x0c, 0x01, 0x00, 0x00,
  0x04, 0x01, 0x00, 0x00, 0xfc, 0x00, 0x00, 0x00, 0xf4, 0x00, 0x00, 0x00,
  0xec, 0x00, 0x00, 0x00, 0xe4, 0x00, 0x00, 0x00, 0xdc, 0x00, 0x00, 0x00,
  0xd4, 0x00, 0x00, 0x00, 0xcc, 0x00, 0x00, 0x00, 0xc4, 0x00, 0x00, 0x00,
  0xbc, 0x00, 0x00, 0x00, 0xb4, 0x00, 0x00, 0x00, 0xac, 0x00, 0x00, 0x00,
  0xa4, 0x00, 0x00, 0x00, 0x9c, 0x00, 0x00, 0x00, 0x94, 0x00, 0x00, 0x00,
  0x74, 0x00, 0x00, 0x00, 0x04, 0x00, 0x00, 0x00, 0x86, 0xee, 0xff, 0xff,
  0x04, 0x00, 0x00, 0x00, 0x60, 0x00, 0x00, 0x00, 0x0c, 0x00, 0x00, 0x00,
  0x08, 0x00, 0x0e, 0x00, 0x08, 0x00, 0x04, 0x00, 0x08, 0x00, 0x00, 0x00,
  0x10, 0x00, 0x00, 0x00, 0x28, 0x00, 0x00, 0x00, 0x00, 0x00, 0x06, 0x00,
  0x08, 0x00, 0x04, 0x00, 0x06, 0x00, 0x00, 0x00, 0x04, 0x00, 0x00, 0x00,
  0x01, 0x00, 0x00, 0x00, 0xeb, 0x03, 0x00, 0x00, 0x0c, 0x00, 0x18, 0x00,
  0x14, 0x00, 0x10, 0x00, 0x0c, 0x00, 0x04, 0x00, 0x0c, 0x00, 0x00, 0x00,
  0xb0, 0x0a, 0xd1, 0xe7, 0xdd, 0x83, 0x34, 0x17, 0x02, 0x00, 0x00, 0x00,
  0x02, 0x00, 0x00, 0x00, 0x04, 0x00, 0x00, 0x00, 0x06, 0x00, 0x00, 0x00,
  0x32, 0x2e, 0x32, 0x31, 0x2e, 0x30, 0x00, 0x00, 0xf2, 0xee, 0xff, 0xff,
  0x04, 0x00, 0x00, 0x00, 0x10, 0x00, 0x00, 0x00, 0x31, 0x2e, 0x31, 0x34,
  0x2e, 0x30, 0x00, 0x00, 0x00, 0x00, 0x00, 0x00, 0x00, 0x00, 0x00, 0x00,
  0x58, 0xd4, 0xff, 0xff, 0x5c, 0xd4, 0xff, 0xff, 0x60, 0xd4, 0xff, 0xff,
  0x64, 0xd4, 0xff, 0xff, 0x68, 0xd4, 0xff, 0xff, 0x6c, 0xd4, 0xff, 0xff,
  0x70, 0xd4, 0xff, 0xff, 0x74, 0xd4, 0xff, 0xff, 0x78, 0xd4, 0xff, 0xff,
  0x7c, 0xd4, 0xff, 0xff, 0x80, 0xd4, 0xff, 0xff, 0x84, 0xd4, 0xff, 0xff,
  0x88, 0xd4, 0xff, 0xff, 0x8c, 0xd4, 0xff, 0xff, 0x90, 0xd4, 0xff, 0xff,
  0x94, 0xd4, 0xff, 0xff, 0x98, 0xd4, 0xff, 0xff, 0x52, 0xef, 0xff, 0xff,
  0x04, 0x00, 0x00, 0x00, 0x30, 0x00, 0x00, 0x00, 0xad, 0x64, 0x81, 0x7f,
  0x7f, 0x12, 0x59, 0xf4, 0x7f, 0x81, 0xa6, 0x9b, 0x7f, 0xeb, 0x57, 0x7f,
  0xc5, 0xa8, 0x07, 0x56, 0x81, 0x61, 0x7f, 0x9a, 0x88, 0x81, 0x06, 0x3d,
  0x81, 0x4e, 0x81, 0xa3, 0x61, 0x81, 0x40, 0x61, 0x4a, 0x10, 0x7f, 0x4a,
  0xa1, 0x7f, 0x82, 0xae, 0x81, 0x7f, 0xa6, 0xbc, 0x8e, 0xef, 0xff, 0xff,
  0x04, 0x00, 0x00, 0x00, 0x40, 0x00, 0x00, 0x00, 0xa8, 0x01, 0x00, 0x00,
  0xc1, 0x07, 0x00, 0x00, 0xe2, 0x0b, 0x00, 0x00, 0x11, 0x04, 0x00, 0x00,
  0xb4, 0xfa, 0xff, 0xff, 0x3c, 0x03, 0x00, 0x00, 0xe8, 0x05, 0x00, 0x00,
  0x64, 0x07, 0x00, 0x00, 0x94, 0x09, 0x00, 0x00, 0xa1, 0x03, 0x00, 0x00,
  0xfd, 0x07, 0x00, 0x00, 0xe0, 0x17, 0x00, 0x00, 0xa3, 0x09, 0x00, 0x00,
  0x49, 0x14, 0x00, 0x00, 0x44, 0x04, 0x00, 0x00, 0xff, 0x03, 0x00, 0x00,
  0xda, 0xef, 0xff, 0xff, 0x04, 0x00, 0x00, 0x00, 0x00, 0x06, 0x00, 0x00,
  0x05, 0xe2, 0xe1, 0xe0, 0xb8, 0xa3, 0x2e, 0xba, 0xfb, 0xda, 0x00, 0x24,
  0x06, 0xf9, 0xe8, 0xd1, 0x2e, 0xef, 0x2e, 0xd9, 0xed, 0x1c, 0x61, 0x3f,
  0xc8, 0xf7, 0xdc, 0x00, 0x46, 0x00, 0xdb, 0x44, 0xe7, 0xe1, 0xef, 0x27,
  0xf2, 0x23, 0x13, 0xf2, 0x41, 0x68, 0x2b, 0x7f, 0xe2, 0xf8, 0x26, 0x54,
  0xc1, 0x51, 0x1c, 0x8f, 0x1b, 0x1a, 0x17, 0xf4, 0xec, 0x09, 0x14, 0x72,
  0x7f, 0x72, 0xf8, 0xbf, 0x8a, 0xcc, 0x33, 0xc3, 0x1c, 0x6e, 0xda, 0x04,
  0x4b, 0xe0, 0x0c, 0x18, 0x41, 0x11, 0x14, 0x60, 0xd8, 0x9f, 0x37, 0x05,
  0xa1, 0x59, 0x63, 0xbe, 0x24, 0xf5, 0x5b, 0x61, 0xa4, 0x0d, 0x37, 0x5c,
  0xfe, 0xd1, 0xf3, 0xcf, 0xed, 0xe4, 0x2d, 0xc3, 0xcf, 0x4b, 0x04, 0x09,
  0xf7, 0x0b, 0x0f, 0xdd, 0x21, 0x05, 0x15, 0xcf, 0x01, 0x4a, 0x60, 0x49,
  0xd5, 0x07, 0xfc, 0xd9, 0x4b, 0xd4, 0xae, 0x42, 0x81, 0xdb, 0xff, 0x08,
  0xcd, 0x4a, 0x9c, 0xe2, 0x46, 0x65, 0x6d, 0x68, 0xfe, 0x08, 0x1a, 0x17,
  0x6d, 0xbc, 0x2c, 0x4b, 0xdf, 0xea, 0xca, 0xbc, 0x07, 0xf4, 0xe9, 0x48,
  0xeb, 0x50, 0x56, 0xeb, 0x1c, 0x06, 0x2a, 0x02, 0x20, 0x85, 0xbd, 0x34,
  0x10, 0x32, 0x2e, 0xf2, 0x4b, 0x5a, 0x3a, 0xc1, 0x03, 0x3e, 0x66, 0xa7,
  0x3f, 0xf2, 0xca, 0x48, 0x81, 0x5b, 0xff, 0x51, 0x2b, 0x48, 0x8a, 0xd2,
  0x2c, 0xde, 0xfd, 0x58, 0x4b, 0x0c, 0x1c, 0xde, 0x28, 0x15, 0x41, 0xcb,
  0x25, 0x1e, 0x62, 0xda, 0x1f, 0xe1, 0x21, 0x41, 0x22, 0xdd, 0x44, 0xde,
  0xea, 0xfd, 0xdf, 0xbc, 0xd0, 0x24, 0x57, 0x25, 0x7f, 0xd8, 0xbd, 0x53,
  0x4d, 0x20, 0x5a, 0xfd, 0xd0, 0x44, 0xc1, 0xeb, 0xce, 0x09, 0x38, 0x47,
  0xf5, 0x39, 0x59, 0x59, 0x42, 0xf6, 0x0e, 0xd1, 0xfe, 0x1a, 0x17, 0x9d,
  0x06, 0x68, 0x2c, 0xea, 0x09, 0xf1, 0xd8, 0x3a, 0x3e, 0xcd, 0x0b, 0xb6,
  0xea, 0x31, 0xed, 0xdf, 0xde, 0x1f, 0x12, 0x1c, 0x3f, 0xf3, 0x01, 0x4a,
  0x25, 0x58, 0x38, 0xfa, 0xcc, 0x26, 0xcd, 0xf8, 0xe8, 0x31, 0x66, 0x7f,
  0xe6, 0xc7, 0xf6, 0x07, 0x15, 0xbb, 0x06, 0xe7, 0xec, 0xba, 0xee, 0xc9,
  0xd7, 0xfd, 0x07, 0xa8, 0xe6, 0x21, 0x23, 0xe7, 0x23, 0xf7, 0x00, 0xff,
  0xfa, 0xf5, 0x16, 0xfd, 0x1e, 0x0f, 0x03, 0xed, 0x7f, 0x10, 0x04, 0x0d,
  0x00, 0x5c, 0x2f, 0x23, 0xf0, 0x5f, 0xe8, 0x09, 0x0a, 0x1f, 0x25, 0x4c,
  0xa4, 0x35, 0x20, 0x8e, 0x69, 0x23, 0x12, 0x0d, 0xa0, 0x26, 0x37, 0xf9,
  0x49, 0xf2, 0x81, 0x54, 0x81, 0x65, 0x2b, 0xdd, 0x52, 0x33, 0xf5, 0x26,
  0xdb, 0xb2, 0xdb, 0xbe, 0x20, 0xcb, 0x0c, 0xee, 0xeb, 0x4a, 0x0d, 0x5c,
  0x30, 0xc3, 0xfb, 0x68, 0x0d, 0xa4, 0xf0, 0xb1, 0x32, 0xbf, 0x15, 0xcf,
  0x31, 0xf2, 0xd6, 0x22, 0x1e, 0x41, 0x36, 0x1d, 0x42, 0x42, 0x25, 0x0c,
  0xa2, 0x02, 0x1c, 0x53, 0x19, 0x08, 0xb8, 0x1c, 0xbc, 0xbc, 0x03, 0xde,
  0x0b, 0xd4, 0x3a, 0x07, 0xc2, 0xa9, 0x1c, 0xc5, 0xed, 0xdf, 0x93, 0xf1,
  0x8b, 0x0f, 0x2b, 0xf4, 0x15, 0xda, 0xe9, 0xe7, 0x81, 0xa6, 0xd5, 0x30,
  0xca, 0x18, 0x2e, 0xad, 0x2a, 0x29, 0xe1, 0x20, 0xa1, 0xe6, 0x97, 0xde,
  0x35, 0xee, 0xb6, 0x1a, 0xf3, 0xf0, 0xbf, 0x05, 0xb6, 0x2c, 0xf8, 0x02,
  0x33, 0x16, 0x3e, 0x3d, 0x81, 0xdd, 0x37, 0x27, 0x1d, 0x45, 0x10, 0x10,
  0x2a, 0x94, 0x1c, 0x0f, 0xf0, 0xf7, 0x1e, 0x09, 0x1e, 0xf8, 0xca, 0x82,
  0xa7, 0x50, 0x46, 0xbc, 0x2b, 0x2a, 0x18, 0x41, 0xf9, 0xcf, 0x4e, 0xf5,
  0x5c, 0x7f, 0xf3, 0xc5, 0x3a, 0xf8, 0xbc, 0x3d, 0xb4, 0x27, 0xce, 0xa6,
  0xf7, 0xf0, 0xdd, 0xd1, 0xed, 0x24, 0x4b, 0x6b, 0x75, 0x8b, 0xf5, 0x10,
  0xea, 0x5b, 0x47, 0xd6, 0xc7, 0x62, 0x12, 0x1c, 0x91, 0xf0, 0x3b, 0x79,
  0x19, 0xea, 0xf1, 0x4b, 0xd8, 0xdd, 0x09, 0xf2, 0xfe, 0x13, 0x05, 0xe1,
  0xeb, 0x0f, 0x1b, 0xbd, 0x7f, 0x0b, 0x27, 0xea, 0x37, 0xfd, 0x44, 0x07,
  0x9a, 0x5a, 0xaa, 0x3c, 0x0d, 0x45, 0xb4, 0x23, 0x38, 0xe8, 0xea, 0xd5,
  0xea, 0xce, 0xf7, 0x06, 0xe0, 0x37, 0x1d, 0x2b, 0x09, 0x27, 0xdd, 0xaf,
  0xc2, 0x34, 0x20, 0x52, 0x29, 0x3a, 0xfe, 0x0c, 0x6d, 0x45, 0x55, 0x03,
  0xe9, 0x08, 0x15, 0x3d, 0x4e, 0xf3, 0xe7, 0xe4, 0xfc, 0xfd, 0x42, 0xe9,
  0xe8, 0x34, 0x02, 0xae, 0xee, 0xcc, 0xfb, 0xe3, 0x7f, 0xbc, 0x08, 0x4d,
  0x28, 0x25, 0x5e, 0x24, 0x17, 0xf4, 0x21, 0xb3, 0xa4, 0xd1, 0x3d, 0x00,
  0x2b, 0x0a, 0xea, 0xc2, 0xbf, 0xf0, 0x03, 0x36, 0xbd, 0x8e, 0xe0, 0x6c,
  0x05, 0x17, 0xb3, 0xd0, 0xcb, 0xa0, 0xda, 0x34, 0xcd, 0x57, 0x81, 0xc5,
  0x76, 0x79, 0x72, 0x5c, 0xcc, 0x24, 0x3e, 0x7e, 0x95, 0x0f, 0x23, 0xe0,
  0x03, 0xbe, 0xd6, 0xfb, 0xf3, 0x8f, 0x09, 0xc6, 0x0f, 0xed, 0xc5, 0xb1,
  0x17, 0xc8, 0xb6, 0x30, 0xe1, 0xe0, 0xb6, 0xb4, 0x17, 0xf5, 0x22, 0x12,
  0x81, 0xf6, 0x06, 0x06, 0xe9, 0x2c, 0xe6, 0x0e, 0xcc, 0x04, 0xd9, 0xed,
  0x4b, 0x16, 0x4a, 0xfb, 0xcf, 0x3a, 0x40, 0x02, 0xc4, 0x48, 0x54, 0x1f,
  0xfa, 0xc0, 0xeb, 0x10, 0x29, 0xca, 0x2d, 0x07, 0x38, 0x06, 0x2a, 0xcb,
  0x16, 0xf4, 0xfd, 0x15, 0x13, 0x16, 0x25, 0x40, 0xf9, 0x33, 0x07, 0x7f,
  0xd1, 0xd3, 0xfb, 0x60, 0xcc, 0x51, 0xf4, 0x2c, 0xbc, 0xfa, 0xe6, 0x48,
  0x38, 0xe8, 0x6e, 0x22, 0xe7, 0xe2, 0x1f, 0x26, 0xab, 0xd2, 0x08, 0xf6,
  0xc5, 0x2d, 0xc7, 0x2c, 0x35, 0x07, 0x33, 0x20, 0xdf, 0xa0, 0xed, 0x2d,
  0xe6, 0x21, 0xcb, 0x26, 0x43, 0xe7, 0x04, 0x45, 0x52, 0x0b, 0xe3, 0x10,
  0x49, 0x45, 0xd1, 0xdd, 0xfa, 0xed, 0xe7, 0x53, 0xbb, 0x7f, 0x36, 0xe9,
  0xd6, 0x18, 0x11, 0x5e, 0xc9, 0x06, 0xd5, 0x3b, 0x0d, 0x08, 0x1b, 0x68,
  0x2a, 0x4d, 0x6e, 0x1c, 0x2f, 0xe5, 0x30, 0xd0, 0xbe, 0x17, 0x1f, 0x53,
  0x13, 0xe8, 0xe1, 0x4b, 0x1a, 0x5a, 0x0c, 0xe4, 0x3b, 0x2d, 0x35, 0xc0,
  0xf7, 0xc2, 0x57, 0x03, 0x6e, 0xf9, 0x27, 0xe0, 0x0b, 0x30, 0x13, 0x46,
  0xd8, 0x04, 0xbc, 0xdf, 0xf6, 0x16, 0x34, 0x3b, 0x61, 0x01, 0xd9, 0xfb,
  0x41, 0x38, 0x3d, 0xd3, 0xec, 0x7f, 0x00, 0x39, 0x1e, 0x04, 0x25, 0xf4,
  0x38, 0xee, 0xcc, 0x1d, 0xe6, 0xda, 0xea, 0x14, 0x22, 0xf2, 0xcd, 0x0f,
  0xd1, 0x34, 0x24, 0xd1, 0xa4, 0x01, 0x36, 0x38, 0xa7, 0xe5, 0x85, 0xcb,
  0x29, 0x2e, 0x06, 0x36, 0xf0, 0x29, 0x45, 0x15, 0x1c, 0x44, 0x2a, 0xc5,
  0x23, 0x9e, 0x5d, 0x28, 0xdb, 0xbf, 0x13, 0x42, 0x5e, 0x50, 0xa5, 0x81,
  0xcc, 0x04, 0xda, 0xce, 0x1c, 0x53, 0x02, 0x39, 0xf0, 0xd1, 0x1c, 0x33,
  0x03, 0xf2, 0xe4, 0x3d, 0xac, 0x09, 0xf7, 0x0c, 0xe7, 0x46, 0x0b, 0x2e,
  0x1c, 0x25, 0x41, 0x1b, 0x22, 0xff, 0xc4, 0x3a, 0xce, 0xd6, 0x00, 0xf8,
  0x16, 0x7c, 0x29, 0xf5, 0x37, 0x45, 0x10, 0x14, 0x14, 0xe0, 0x17, 0x7f,
  0xc3, 0x2d, 0xf5, 0x0e, 0x4b, 0x7f, 0x07, 0x41, 0x0a, 0x23, 0x23, 0xc0,
  0xf8, 0xc4, 0x0e, 0x6e, 0xf0, 0x43, 0xda, 0x0d, 0xff, 0x0f, 0x1f, 0x21,
  0x06, 0x1d, 0x51, 0xef, 0x07, 0xd0, 0xc5, 0xec, 0xe0, 0x26, 0x05, 0x0b,
  0xfd, 0x2e, 0xf9, 0x33, 0xe4, 0xbb, 0x35, 0xc3, 0xd6, 0xcc, 0xf5, 0x20,
  0x1a, 0x02, 0x2c, 0x41, 0x05, 0xd4, 0xa3, 0xa6, 0x22, 0xd5, 0x19, 0x6c,
  0xdd, 0x1f, 0x39, 0xc1, 0x89, 0xfb, 0x23, 0x34, 0xd8, 0xe8, 0x88, 0xbb,
  0x52, 0x42, 0x37, 0x66, 0xfa, 0x36, 0xe3, 0x3c, 0xd8, 0x30, 0x3a, 0xe1,
  0xfb, 0x99, 0xbc, 0x6c, 0x06, 0xdc, 0x1a, 0x26, 0x41, 0xfc, 0xa1, 0x81,
  0x0f, 0xf9, 0x0a, 0x3c, 0xd8, 0x9f, 0xd9, 0xc4, 0x00, 0xb2, 0xbc, 0xb8,
  0xe9, 0x3d, 0x05, 0xb2, 0x09, 0xef, 0xf1, 0x38, 0xea, 0x0e, 0x0a, 0xc1,
  0xe6, 0xa3, 0x1b, 0xeb, 0x3b, 0x0b, 0x49, 0xb8, 0x7f, 0x49, 0x3a, 0x4c,
  0x5e, 0xea, 0x1e, 0x39, 0x00, 0x76, 0x11, 0x6b, 0x17, 0x2e, 0x31, 0x3a,
  0x3b, 0x0b, 0xef, 0xa7, 0xf7, 0x6b, 0x7f, 0x5e, 0xfc, 0x14, 0x1a, 0x38,
  0xc2, 0x05, 0x99, 0x4b, 0xbd, 0x0f, 0x35, 0x16, 0xa3, 0x18, 0x3e, 0x24,
  0x43, 0x24, 0x7e, 0x4a, 0x34, 0x1b, 0xcb, 0x20, 0xd9, 0xc2, 0xda, 0xa1,
  0xc3, 0x23, 0x08, 0x33, 0x52, 0x20, 0x65, 0x1e, 0xc5, 0xf0, 0x9f, 0xf4,
  0xb2, 0x20, 0x3d, 0xe5, 0xf9, 0x17, 0x0e, 0x13, 0x27, 0x6d, 0xdf, 0x07,
  0x42, 0x3a, 0xe9, 0x21, 0xe7, 0x3c, 0x04, 0x1a, 0x1f, 0xcf, 0x1d, 0x0a,
  0xc4, 0xcb, 0xd0, 0xc0, 0x24, 0x00, 0x13, 0xd8, 0x43, 0x02, 0x09, 0x7f,
  0xed, 0xcc, 0xe6, 0x16, 0xd7, 0x86, 0xc7, 0xe1, 0xf4, 0xc0, 0x72, 0xfe,
  0x1a, 0x00, 0xdf, 0x33, 0xea, 0xcc, 0x31, 0xfd, 0xf8, 0x1a, 0xf7, 0xd5,
  0xf0, 0xff, 0x1e, 0xd7, 0x7f, 0x10, 0x1b, 0xe5, 0x0a, 0x39, 0x63, 0x44,
  0x9c, 0x38, 0xa7, 0x20, 0x0d, 0x43, 0xb9, 0x15, 0x12, 0xf5, 0x02, 0x18,
  0xfb, 0xcf, 0xfc, 0x0e, 0xdc, 0x3a, 0xf1, 0x20, 0x1d, 0x21, 0xdd, 0xb6,
  0x81, 0x50, 0xdf, 0xda, 0x2b, 0x57, 0xf5, 0x40, 0xd6, 0x14, 0xe8, 0xad,
  0xed, 0xc9, 0x10, 0x77, 0xdb, 0x41, 0xee, 0xca, 0x17, 0xeb, 0xd7, 0xfc,
  0x01, 0xf3, 0x1b, 0x1b, 0x1a, 0xf5, 0xc7, 0xf6, 0x9c, 0x56, 0xee, 0x1b,
  0x30, 0x41, 0x0f, 0x3a, 0x4c, 0xf0, 0x20, 0xc0, 0x00, 0x15, 0x41, 0x2f,
  0x21, 0xfb, 0xef, 0x94, 0xbd, 0x61, 0x67, 0x02, 0x95, 0x1c, 0x91, 0x5e,
  0x0c, 0xf7, 0xf4, 0x66, 0xf3, 0x0d, 0x1e, 0x00, 0xc6, 0xef, 0x5f, 0x02,
  0x47, 0x14, 0x68, 0x7f, 0x13, 0x37, 0xc9, 0x52, 0xc7, 0x99, 0x20, 0xde,
  0xd4, 0xbd, 0xdf, 0xae, 0xfe, 0x78, 0x5b, 0x41, 0x06, 0x3a, 0xbf, 0x1f,
  0xc1, 0x43, 0x1c, 0x09, 0xf1, 0x47, 0x72, 0x0e, 0xef, 0x03, 0x40, 0x6f,
  0xc3, 0x9f, 0x06, 0x64, 0xc0, 0x02, 0xbe, 0xd6, 0xc2, 0x7f, 0x01, 0xe2,
  0x6d, 0x5e, 0x5c, 0x67, 0x9f, 0xce, 0x0d, 0x31, 0xa2, 0x24, 0xb5, 0xb2,
  0xb1, 0x71, 0x57, 0x57, 0x03, 0xe0, 0xf4, 0xde, 0x1b, 0xee, 0xaa, 0x09,
  0xe4, 0x98, 0xd6, 0x19, 0x81, 0xad, 0xc5, 0x8e, 0xf9, 0xc8, 0xc3, 0x9c,
  0xb7, 0xe1, 0x16, 0xbb, 0x19, 0x98, 0xcb, 0x54, 0xa9, 0xd7, 0xbf, 0xa3,
  0x4f, 0xf8, 0x43, 0x33, 0x28, 0x3f, 0x17, 0xe5, 0x33, 0x29, 0x61, 0x01,
  0x44, 0xcc, 0xe3, 0x39, 0x34, 0xe3, 0x5f, 0x5a, 0x76, 0x3b, 0x29, 0xd1,
  0xdf, 0x1c, 0x0d, 0x3c, 0x2a, 0xdc, 0xf3, 0x1b, 0x64, 0x7f, 0x2a, 0xe2,
  0x14, 0x39, 0x18, 0xf4, 0x36, 0x3d, 0x45, 0xbd, 0x14, 0xf8, 0x3d, 0x4e,
  0x93, 0x33, 0xbd, 0xe1, 0x0d, 0x30, 0xbd, 0x25, 0x3a, 0xf9, 0xdf, 0x1c,
  0x2a, 0xf8, 0x12, 0x43, 0xaa, 0x04, 0xbd, 0xc1, 0xfe, 0x28, 0x0b, 0xf5,
  0x3f, 0x32, 0x2a, 0x5c, 0x44, 0xe7, 0xff, 0x0e, 0x36, 0x0e, 0x0e, 0xcb,
  0x0e, 0x09, 0x5e, 0x2d, 0x3b, 0x28, 0x1b, 0xff, 0x18, 0xa8, 0xff, 0xf3,
  0x26, 0xea, 0x1d, 0xc1, 0x25, 0xc8, 0x09, 0x9a, 0xf4, 0xfc, 0xbd, 0x24,
  0x01, 0xc7, 0x03, 0x22, 0x3a, 0xa9, 0xfd, 0x81, 0xaa, 0xd6, 0x28, 0xfb,
  0xe6, 0xf5, 0xff, 0xff, 0x04, 0x00, 0x00, 0x00, 0x80, 0x00, 0x00, 0x00,
  0xc3, 0x04, 0x00, 0x00, 0xda, 0x0a, 0x00, 0x00, 0xad, 0xff, 0xff, 0xff,
  0xc7, 0x08, 0x00, 0x00, 0xe9, 0xf2, 0xff, 0xff, 0x2c, 0xf7, 0xff, 0xff,
  0x23, 0xfb, 0xff, 0xff, 0x63, 0xf5, 0xff, 0xff, 0x48, 0xfd, 0xff, 0xff,
  0x7f, 0xfd, 0xff, 0xff, 0xf6, 0xfe, 0xff, 0xff, 0x34, 0x08, 0x00, 0x00,
  0x88, 0xf3, 0xff, 0xff, 0xe6, 0x12, 0x00, 0x00, 0xfd, 0x07, 0x00, 0x00,
  0xa2, 0x07, 0x00, 0x00, 0xff, 0xff, 0xff, 0xff, 0x4a, 0xf7, 0xff, 0xff,
  0x13, 0x12, 0x00, 0x00, 0xf1, 0xfd, 0xff, 0xff, 0x99, 0xf5, 0xff, 0xff,
  0x0f, 0x0c, 0x00, 0x00, 0x72, 0x03, 0x00, 0x00, 0xe9, 0x08, 0x00, 0x00,
  0x2d, 0xfe, 0xff, 0xff, 0x3b, 0x07, 0x00, 0x00, 0x05, 0xf3, 0xff, 0xff,
  0x7c, 0x11, 0x00, 0x00, 0x66, 0x07, 0x00, 0x00, 0x94, 0x0f, 0x00, 0x00,
  0x20, 0xfe, 0xff, 0xff, 0xd9, 0xf6, 0xff, 0xff, 0x72, 0xf6, 0xff, 0xff,
  0x04, 0x00, 0x00, 0x00, 0x00, 0x04, 0x00, 0x00, 0x4d, 0x36, 0x52, 0xd7,
  0xfb, 0xe9, 0x6b, 0xde, 0xea, 0xf9, 0x20, 0x7f, 0x02, 0x29, 0x95, 0x1c,
  0x3c, 0x3e, 0xfb, 0x44, 0xe6, 0xb9, 0xc6, 0x3a, 0xe9, 0x07, 0xef, 0x20,
  0x02, 0xcc, 0x0b, 0x9f, 0x07, 0xf7, 0x23, 0x00, 0x1b, 0xe9, 0xac, 0x1a,
  0x7f, 0x0a, 0xd5, 0x1b, 0xe2, 0xc1, 0xd1, 0x2c, 0x1a, 0x26, 0x1a, 0x0b,
  0x4b, 0xd2, 0xce, 0x3c, 0xf7, 0x34, 0x12, 0x12, 0x02, 0x9a, 0x0b, 0x45,
  0x98, 0xbb, 0x3e, 0x16, 0x1b, 0x81, 0xad, 0xb4, 0xbd, 0xfa, 0x4e, 0x2d,
  0xdb, 0x5c, 0x82, 0x86, 0xad, 0x3d, 0x0c, 0x4e, 0x9d, 0xa3, 0x10, 0xf1,
  0x16, 0xd2, 0xaf, 0xf6, 0xc8, 0xb8, 0x4b, 0xf3, 0xa5, 0xbf, 0x88, 0x53,
  0x09, 0x41, 0xb8, 0x5e, 0x18, 0x0c, 0x16, 0x0f, 0x2d, 0xe0, 0x5b, 0xe2,
  0x31, 0x44, 0xd9, 0xc7, 0x0e, 0x2e, 0x3c, 0x8d, 0x5c, 0xee, 0x12, 0x81,
  0xc2, 0x38, 0x2d, 0x15, 0xe7, 0xd7, 0x0d, 0xe7, 0xf7, 0xd6, 0xe9, 0x15,
  0x7f, 0x30, 0x02, 0x25, 0x2e, 0xde, 0x09, 0x08, 0xf1, 0x25, 0xdc, 0x0a,
  0x4e, 0x0b, 0xef, 0x1f, 0x1d, 0x3d, 0x55, 0xe9, 0xd8, 0xb5, 0x33, 0x41,
  0x11, 0x4b, 0x69, 0xba, 0xec, 0xe8, 0x4e, 0xa1, 0xa2, 0x0b, 0x54, 0x85,
  0xa2, 0x4f, 0x98, 0x55, 0x1f, 0xea, 0x06, 0x73, 0x42, 0xbc, 0xcb, 0x7f,
  0xec, 0xa4, 0x43, 0x64, 0x57, 0xef, 0xd4, 0xb6, 0x81, 0x27, 0xbf, 0xd6,
  0x5a, 0xd5, 0x4f, 0x20, 0x17, 0x16, 0x38, 0x5b, 0x23, 0x51, 0xfe, 0x8f,
  0xbb, 0x00, 0x57, 0xb8, 0xd6, 0x1e, 0xb8, 0xe0, 0xfa, 0xd4, 0x14, 0x43,
  0xd5, 0xd6, 0xd2, 0x0a, 0xf9, 0xc3, 0xf0, 0x44, 0x38, 0x1b, 0x25, 0xe4,
  0x05, 0xad, 0xd0, 0x7f, 0xf1, 0xa0, 0x27, 0xcb, 0xf6, 0x1a, 0x1b, 0x07,
  0xc0, 0x1a, 0x24, 0xc2, 0x0a, 0x30, 0xe7, 0xe8, 0xd9, 0x2f, 0x44, 0x3e,
  0x91, 0x27, 0x8a, 0xd8, 0x4e, 0x76, 0xf1, 0x49, 0xd3, 0x35, 0x58, 0xb2,
  0xea, 0x0a, 0x32, 0x5b, 0x33, 0xf7, 0x4f, 0x04, 0xce, 0x2a, 0x1f, 0xae,
  0x70, 0xb6, 0x61, 0x9b, 0xcf, 0x7f, 0x57, 0x5b, 0xbc, 0x1d, 0xcc, 0xdf,
  0x0c, 0x2e, 0x1b, 0x0f, 0x7f, 0x17, 0xf5, 0xf1, 0x4b, 0xa6, 0x0e, 0x12,
  0x18, 0xde, 0x03, 0x0c, 0x48, 0xe1, 0xec, 0xe3, 0x2a, 0xfd, 0x6c, 0xed,
  0xe4, 0xcb, 0x3f, 0x3c, 0x35, 0x06, 0x1a, 0xb7, 0x18, 0xdd, 0xd3, 0x39,
  0x67, 0x4b, 0x3f, 0x81, 0xf1, 0x71, 0xdd, 0x1c, 0x3e, 0x0a, 0xd2, 0x5a,
  0x37, 0xf0, 0xb3, 0x55, 0xc6, 0xe5, 0x2e, 0xff, 0x46, 0xaa, 0x12, 0xef,
  0x05, 0x00, 0x1b, 0xc1, 0x15, 0xf7, 0xf7, 0x21, 0x37, 0x2e, 0x22, 0x9b,
  0xf7, 0x7f, 0xea, 0x0f, 0x25, 0xd7, 0x05, 0x4f, 0xee, 0x19, 0xf4, 0x47,
  0xf0, 0xc6, 0x3a, 0x43, 0x47, 0xc1, 0xcf, 0xcc, 0x28, 0x28, 0x57, 0xbc,
  0xae, 0x11, 0x1e, 0x9c, 0xba, 0xf7, 0xdf, 0x0c, 0xed, 0x7f, 0xdc, 0x0e,
  0xf3, 0xe9, 0x34, 0x38, 0x0f, 0x17, 0xfc, 0x69, 0xdb, 0xe4, 0xf0, 0x5d,
  0x2f, 0xe3, 0xd6, 0xb5, 0xb9, 0xe3, 0x08, 0xc2, 0xe6, 0xf7, 0xe1, 0xfa,
  0x6e, 0x52, 0x81, 0xf9, 0x9b, 0xc9, 0xf7, 0xb4, 0xb6, 0xdb, 0x11, 0xc1,
  0xc9, 0xdd, 0x96, 0x4d, 0x05, 0xe0, 0xcf, 0xde, 0xa5, 0x33, 0x59, 0x89,
  0x7c, 0x3e, 0x7f, 0x0f, 0x9d, 0xac, 0x30, 0xa2, 0x18, 0x31, 0xd6, 0x52,
  0xfa, 0x2f, 0xb0, 0x44, 0x42, 0x0b, 0x19, 0x35, 0xd5, 0xd3, 0xb7, 0x65,
  0xdd, 0xfb, 0xad, 0x7e, 0x12, 0xa6, 0x09, 0x85, 0xdc, 0x0f, 0xa3, 0x31,
  0xe0, 0xd6, 0x81, 0xf1, 0x5f, 0x58, 0xda, 0x11, 0x16, 0xf4, 0x17, 0x0c,
  0x10, 0xe6, 0x1e, 0xc8, 0x00, 0x3a, 0xd7, 0x0d, 0x23, 0xed, 0x1b, 0xee,
  0x15, 0xfb, 0x2a, 0x36, 0x9b, 0x87, 0x41, 0xb1, 0x0b, 0x60, 0x82, 0xb8,
  0x16, 0x46, 0xfb, 0xfd, 0xcc, 0x21, 0x17, 0xc8, 0xc6, 0xf1, 0xbe, 0xe1,
  0x41, 0x35, 0xa4, 0x66, 0x0a, 0x0d, 0x8f, 0x81, 0x2f, 0x99, 0x57, 0xd0,
  0x3e, 0xe2, 0x37, 0x2e, 0xe8, 0xd1, 0x0f, 0xcc, 0x14, 0xcf, 0xd4, 0x7f,
  0xde, 0xe5, 0xdf, 0x15, 0x08, 0x4f, 0x29, 0x09, 0xbe, 0x05, 0x31, 0x3b,
  0xc2, 0x42, 0xe3, 0x55, 0xc1, 0xc6, 0x0c, 0xf8, 0xdd, 0x43, 0xde, 0x35,
  0xef, 0x04, 0x9f, 0xcb, 0x81, 0x4c, 0x34, 0x87, 0xe1, 0x67, 0x66, 0xf7,
  0x08, 0xff, 0x6e, 0x06, 0xb4, 0x5a, 0xf7, 0xc7, 0x4f, 0x9e, 0xba, 0xdc,
  0x25, 0x56, 0x1e, 0xf6, 0x43, 0x1e, 0x28, 0x2f, 0x0e, 0x2c, 0x1c, 0xbf,
  0xa7, 0x9b, 0x1d, 0x7f, 0xf2, 0x19, 0xe5, 0xfc, 0xde, 0x26, 0x33, 0xd1,
  0x9d, 0xf8, 0x6a, 0xcb, 0x26, 0x57, 0xb6, 0x06, 0xd6, 0x06, 0xff, 0xe6,
  0xd8, 0xfd, 0xdd, 0x2e, 0xdc, 0xb8, 0x98, 0xe1, 0xf1, 0x62, 0xbe, 0x0a,
  0x00, 0x7f, 0x14, 0x24, 0x0c, 0xce, 0x50, 0xd2, 0xfb, 0x50, 0xe0, 0x39,
  0x1a, 0x1a, 0xc8, 0x41, 0xf9, 0x2a, 0xe6, 0x12, 0x2c, 0x18, 0x0e, 0x40,
  0xc0, 0xdb, 0x90, 0x26, 0x63, 0x7f, 0xde, 0x46, 0xb5, 0x44, 0x1a, 0xda,
  0xbd, 0x29, 0x09, 0xbe, 0xf6, 0xe6, 0xae, 0x2a, 0x37, 0x4e, 0xdc, 0x31,
  0xd7, 0xe0, 0x0f, 0x19, 0xe2, 0xfb, 0x20, 0x20, 0x18, 0x16, 0x57, 0xc7,
  0x81, 0x8e, 0x03, 0x6c, 0xeb, 0x10, 0x51, 0xe3, 0x03, 0x00, 0x60, 0xf8,
  0x96, 0xf2, 0x6b, 0x0c, 0x16, 0xf0, 0x8f, 0x14, 0xca, 0x56, 0x32, 0xdd,
  0xa8, 0xfd, 0xe3, 0x92, 0x96, 0x83, 0x61, 0x94, 0x81, 0xe8, 0x24, 0x95,
  0x94, 0x78, 0x25, 0xc6, 0x71, 0xc2, 0x44, 0xa0, 0x89, 0x33, 0xfa, 0xc8,
  0xd0, 0x97, 0xb5, 0x56, 0x0c, 0x65, 0x78, 0xfd, 0xea, 0x0b, 0x1b, 0xaa,
  0x03, 0x2c, 0xe1, 0x7f, 0x50, 0x53, 0xdb, 0xc2, 0x4b, 0xf1, 0x11, 0x43,
  0xd5, 0x0d, 0xa3, 0x2a, 0x55, 0x38, 0xbc, 0x2a, 0x31, 0xaf, 0x53, 0xb5,
  0x2b, 0xc1, 0xd9, 0x16, 0x0e, 0x03, 0x0a, 0x31, 0x38, 0x38, 0x28, 0xd2,
  0x97, 0x81, 0x18, 0x30, 0x30, 0x86, 0xd2, 0xcd, 0x27, 0xf8, 0xdc, 0xf2,
  0x21, 0x0f, 0x5f, 0xd6, 0x1c, 0x31, 0xf1, 0xbe, 0xba, 0x39, 0x11, 0x11,
  0xea, 0x1e, 0x1d, 0x88, 0x94, 0x83, 0x19, 0x1c, 0xf2, 0x7b, 0x9b, 0x51,
  0xf6, 0xa9, 0xf1, 0x0e, 0x1b, 0x97, 0x11, 0xaf, 0x53, 0xe7, 0x8e, 0x69,
  0x62, 0x69, 0xf0, 0x82, 0xc7, 0x04, 0x12, 0x7f, 0xc9, 0xf5, 0xba, 0xa9,
  0x30, 0xe9, 0x10, 0x5d, 0xff, 0x70, 0x9a, 0x7c, 0x81, 0x10, 0xe6, 0x0c,
  0x8e, 0x05, 0xad, 0x3b, 0x02, 0x6d, 0x3f, 0xc7, 0x4c, 0x11, 0xc5, 0xb0,
  0x4c, 0xdc, 0x85, 0xb3, 0x1a, 0x3e, 0x9e, 0xf4, 0x1b, 0x05, 0xf8, 0x26,
  0x55, 0x28, 0xea, 0xb0, 0x61, 0xf6, 0xb1, 0xdc, 0xfb, 0x42, 0xee, 0xec,
  0x7f, 0xb0, 0xb4, 0x17, 0x61, 0xee, 0x7b, 0xaa, 0x34, 0xd5, 0x67, 0x61,
  0x06, 0x25, 0x2e, 0xe4, 0x2c, 0x0f, 0x65, 0x0b, 0x16, 0xc3, 0x21, 0x08,
  0x4d, 0x81, 0xbb, 0x0c, 0x26, 0x1d, 0xad, 0x36, 0x39, 0xd1, 0x00, 0xed,
  0x14, 0x0b, 0x49, 0xea, 0x12, 0xb0, 0x09, 0x23, 0x08, 0xeb, 0x52, 0x38,
  0x2c, 0x06, 0x4e, 0xf7, 0x6b, 0xdd, 0xd7, 0x7f, 0x3c, 0xa4, 0xe9, 0xe4,
  0xdd, 0x0c, 0xfb, 0xfc, 0x43, 0xa3, 0x10, 0xf5, 0xc4, 0x67, 0x0f, 0x3d,
  0x05, 0x96, 0x22, 0xf5, 0x52, 0x2a, 0x4a, 0xea, 0x06, 0x26, 0x6c, 0xc5,
  0x81, 0xbf, 0x56, 0xe9, 0x19, 0x1d, 0xd7, 0xe1, 0x3b, 0x31, 0xdc, 0x1f,
  0xce, 0x14, 0x14, 0xbd, 0x1f, 0xee, 0xdc, 0xf1, 0xdf, 0x0a, 0x28, 0xa5,
  0x7e, 0xfa, 0xff, 0xff, 0x04, 0x00, 0x00, 0x00, 0x80, 0x00, 0x00, 0x00,
  0x71, 0x01, 0x00, 0x00, 0x39, 0xfe, 0xff, 0xff, 0x99, 0xfc, 0xff, 0xff,
  0xc8, 0xfb, 0xff, 0xff, 0xf5, 0xf9, 0xff, 0xff, 0x2e, 0x00, 0x00, 0x00,
  0x53, 0xfe, 0xff, 0xff, 0xda, 0x00, 0x00, 0x00, 0xdf, 0xf8, 0xff, 0xff,
  0xb8, 0xfa, 0xff, 0xff, 0x53, 0x01, 0x00, 0x00, 0xf0, 0x03, 0x00, 0x00,
  0x94, 0x06, 0x00, 0x00, 0x00, 0x00, 0x00, 0x00, 0x0a, 0x0a, 0x00, 0x00,
  0x3f, 0xff, 0xff, 0xff, 0x00, 0x00, 0x00, 0x00, 0x0b, 0x04, 0x00, 0x00,
  0xbb, 0x0c, 0x00, 0x00, 0x0d, 0x06, 0x00, 0x00, 0x93, 0x08, 0x00, 0x00,
  0xeb, 0x02, 0x00, 0x00, 0x04, 0x04, 0x00, 0x00, 0x70, 0xfe, 0xff, 0xff,
  0x6f, 0xf9, 0xff, 0xff, 0xec, 0xfa, 0xff, 0xff, 0xd5, 0xfd, 0xff, 0xff,
  0x00, 0x00, 0x00, 0x00, 0xa3, 0xfa, 0xff, 0xff, 0xd5, 0xfa, 0xff, 0xff,
  0x54, 0xfe, 0xff, 0xff, 0x41, 0xff, 0xff, 0xff, 0x0a, 0xfb, 0xff, 0xff,
  0x04, 0x00, 0x00, 0x00, 0xa0, 0x00, 0x00, 0x00, 0x2c, 0xa1, 0x1c, 0xcf,
  0x9b, 0x12, 0x0e, 0xc8, 0x17, 0x95, 0x24, 0x39, 0x48, 0x0a, 0x34, 0xb5,
  0xe8, 0x12, 0x4a, 0x2b, 0x38, 0xc9, 0x2e, 0x08, 0xad, 0xaf, 0x05, 0xe4,
  0x9d, 0xe3, 0x81, 0x3a, 0xa8, 0x1e, 0x1d, 0x3d, 0x28, 0xdf, 0x02, 0x06,
  0x2f, 0x2b, 0x2a, 0x2f, 0xb6, 0x22, 0xb6, 0x3d, 0x08, 0xbf, 0x45, 0xae,
  0x3c, 0x2f, 0x04, 0xec, 0x41, 0xb9, 0xfd, 0x26, 0x32, 0x0f, 0x81, 0x9c,
  0x37, 0x41, 0xf3, 0xc3, 0x23, 0x0d, 0xf7, 0xb1, 0x05, 0x18, 0x37, 0x38,
  0x25, 0xfb, 0x2b, 0xb0, 0x18, 0x04, 0x97, 0x8e, 0x99, 0xd9, 0x81, 0x27,
  0x42, 0xcc, 0xe3, 0x0d, 0x2f, 0x43, 0x25, 0x15, 0x2f, 0x56, 0xd3, 0xcd,
  0x20, 0x99, 0x2a, 0x44, 0xa3, 0x81, 0xb1, 0xcb, 0x26, 0x17, 0x40, 0x00,
  0xee, 0x39, 0xca, 0x55, 0x44, 0x4d, 0x2f, 0x2b, 0xd4, 0xd5, 0x1a, 0xf6,
  0xa6, 0xa8, 0x52, 0xc4, 0x02, 0xda, 0xeb, 0x4c, 0x0e, 0xb4, 0x10, 0x59,
  0x35, 0x19, 0x82, 0xa5, 0x9a, 0x33, 0xcc, 0xcc, 0xea, 0x15, 0x21, 0x61,
  0x88, 0xca, 0x4d, 0xf5, 0xad, 0x7f, 0x1e, 0xd0, 0x22, 0x3e, 0x33, 0x4d,
  0xb6, 0xfb, 0xff, 0xff, 0x04, 0x00, 0x00, 0x00, 0x14, 0x00, 0x00, 0x00,
  0x1e, 0x04, 0x00, 0x00, 0xf2, 0x01, 0x00, 0x00, 0xcb, 0xfa, 0xff, 0xff,
  0x2c, 0xff, 0xff, 0xff, 0xc2, 0xfd, 0xff, 0xff, 0xd6, 0xfb, 0xff, 0xff,
  0x04, 0x00, 0x00, 0x00, 0x0c, 0x00, 0x00, 0x00, 0xff, 0xff, 0xff, 0xff,
  0x08, 0x00, 0x00, 0x00, 0x20, 0x00, 0x00, 0x00, 0xee, 0xfb, 0xff, 0xff,
  0x04, 0x00, 0x00, 0x00, 0x0c, 0x00, 0x00, 0x00, 0xff, 0xff, 0xff, 0xff,
  0x08, 0x00, 0x00, 0x00, 0x10, 0x00, 0x00, 0x00, 0x06, 0xfc, 0xff, 0xff,
  0x04, 0x00, 0x00, 0x00, 0x0c, 0x00, 0x00, 0x00, 0xff, 0xff, 0xff, 0xff,
  0x10, 0x00, 0x00, 0x00, 0x10, 0x00, 0x00, 0x00, 0x1e, 0xfc, 0xff, 0xff,
  0x04, 0x00, 0x00, 0x00, 0x04, 0x00, 0x00, 0x00, 0xfd, 0xff, 0xff, 0xff,
  0x78, 0xe1, 0xff, 0xff, 0x32, 0xfc, 0xff, 0xff, 0x04, 0x00, 0x00, 0x00,
  0x04, 0x00, 0x00, 0x00, 0x10, 0x00, 0x00, 0x00, 0x42, 0xfc, 0xff, 0xff,
  0x04, 0x00, 0x00, 0x00, 0x04, 0x00, 0x00, 0x00, 0x01, 0x00, 0x00, 0x00,
  0x52, 0xfc, 0xff, 0xff, 0x04, 0x00, 0x00, 0x00, 0x04, 0x00, 0x00, 0x00,
  0x00, 0x00, 0x00, 0x00, 0xac, 0xe1, 0xff, 0xff, 0xb0, 0xe1, 0xff, 0xff,
  0x0f, 0x00, 0x00, 0x00, 0x4d, 0x4c, 0x49, 0x52, 0x20, 0x43, 0x6f, 0x6e,
  0x76, 0x65, 0x72, 0x74, 0x65, 0x64, 0x2e, 0x00, 0x01, 0x00, 0x00, 0x00,
  0x14, 0x00, 0x00, 0x00, 0x00, 0x00, 0x0e, 0x00, 0x18, 0x00, 0x14, 0x00,
  0x10, 0x00, 0x0c, 0x00, 0x08, 0x00, 0x04, 0x00, 0x0e, 0x00, 0x00, 0x00,
  0x14, 0x00, 0x00, 0x00, 0x1c, 0x00, 0x00, 0x00, 0x24, 0x04, 0x00, 0x00,
  0x28, 0x04, 0x00, 0x00, 0x2c, 0x04, 0x00, 0x00, 0x04, 0x00, 0x00, 0x00,
  0x6d, 0x61, 0x69, 0x6e, 0x00, 0x00, 0x00, 0x00, 0x11, 0x00, 0x00, 0x00,
  0xd4, 0x03, 0x00, 0x00, 0x74, 0x03, 0x00, 0x00, 0x20, 0x03, 0x00, 0x00,
  0xf8, 0x02, 0x00, 0x00, 0xb8, 0x02, 0x00, 0x00, 0x58, 0x02, 0x00, 0x00,
  0x30, 0x02, 0x00, 0x00, 0xfc, 0x01, 0x00, 0x00, 0xa8, 0x01, 0x00, 0x00,
  0x80, 0x01, 0x00, 0x00, 0x4c, 0x01, 0x00, 0x00, 0x08, 0x01, 0x00, 0x00,
  0xe0, 0x00, 0x00, 0x00, 0xac, 0x00, 0x00, 0x00, 0x70, 0x00, 0x00, 0x00,
  0x38, 0x00, 0x00, 0x00, 0x04, 0x00, 0x00, 0x00, 0x8a, 0xfd, 0xff, 0xff,
  0x14, 0x00, 0x00, 0x00, 0x00, 0x00, 0x00, 0x09, 0x14, 0x00, 0x00, 0x00,
  0x18, 0x00, 0x00, 0x00, 0x09, 0x00, 0x00, 0x00, 0x1a, 0xfd, 0xff, 0xff,
  0x00, 0x00, 0x80, 0x3f, 0x01, 0x00, 0x00, 0x00, 0x21, 0x00, 0x00, 0x00,
  0x01, 0x00, 0x00, 0x00, 0x20, 0x00, 0x00, 0x00, 0xba, 0xfd, 0xff, 0xff,
  0x14, 0x00, 0x00, 0x00, 0x00, 0x00, 0x00, 0x08, 0x10, 0x00, 0x00, 0x00,
  0x14, 0x00, 0x00, 0x00, 0x08, 0x00, 0x00, 0x00, 0x94, 0xe2, 0xff, 0xff,
  0x01, 0x00, 0x00, 0x00, 0x20, 0x00, 0x00, 0x00, 0x03, 0x00, 0x00, 0x00,
  0x1f, 0x00, 0x00, 0x00, 0x0a, 0x00, 0x00, 0x00, 0x09, 0x00, 0x00, 0x00,
  0xee, 0xfd, 0xff, 0xff, 0x14, 0x00, 0x00, 0x00, 0x00, 0x00, 0x00, 0x08,
  0x14, 0x00, 0x00, 0x00, 0x18, 0x00, 0x00, 0x00, 0x08, 0x00, 0x00, 0x00,
  0xd6, 0xfc, 0xff, 0xff, 0x00, 0x00, 0x00, 0x01, 0x01, 0x00, 0x00, 0x00,
  0x1f, 0x00, 0x00, 0x00, 0x03, 0x00, 0x00, 0x00, 0x1e, 0x00, 0x00, 0x00,
  0x0c, 0x00, 0x00, 0x00, 0x0b, 0x00, 0x00, 0x00, 0x26, 0xfe, 0xff, 0xff,
  0x14, 0x00, 0x00, 0x00, 0x00, 0x00, 0x00, 0x1b, 0x10, 0x00, 0x00, 0x00,
  0x14, 0x00, 0x00, 0x00, 0x07, 0x00, 0x00, 0x00, 0x00, 0xe3, 0xff, 0xff,
  0x01, 0x00, 0x00, 0x00, 0x1e, 0x00, 0x00, 0x00, 0x02, 0x00, 0x00, 0x00,
  0x1d, 0x00, 0x00, 0x00, 0x04, 0x00, 0x00, 0x00, 0x16, 0xfe, 0xff, 0xff,
  0x0c, 0x00, 0x00, 0x00, 0x10, 0x00, 0x00, 0x00, 0x03, 0x00, 0x00, 0x00,
  0x01, 0x00, 0x00, 0x00, 0x1d, 0x00, 0x00, 0x00, 0x02, 0x00, 0x00, 0x00,
  0x1c, 0x00, 0x00, 0x00, 0x08, 0x00, 0x00, 0x00, 0x7a, 0xfe, 0xff, 0xff,
  0x14, 0x00, 0x00, 0x00, 0x00, 0x00, 0x00, 0x01, 0x1c, 0x00, 0x00, 0x00,
  0x20, 0x00, 0x00, 0x00, 0x05, 0x00, 0x00, 0x00, 0xc8, 0xfe, 0xff, 0xff,
  0x00, 0x00, 0x00, 0x01, 0x01, 0x00, 0x00, 0x00, 0x01, 0x00, 0x00, 0x00,
  0x01, 0x00, 0x00, 0x00, 0x1c, 0x00, 0x00, 0x00, 0x03, 0x00, 0x00, 0x00,
  0x1b, 0x00, 0x00, 0x00, 0x0e, 0x00, 0x00, 0x00, 0x0d, 0x00, 0x00, 0x00,
  0xba, 0xfe, 0xff, 0xff, 0x14, 0x00, 0x00, 0x00, 0x00, 0x00, 0x00, 0x34,
  0x10, 0x00, 0x00, 0x00, 0x14, 0x00, 0x00, 0x00, 0x04, 0x00, 0x00, 0x00,
  0x94, 0xe3, 0xff, 0xff, 0x01, 0x00, 0x00, 0x00, 0x1b, 0x00, 0x00, 0x00,
  0x02, 0x00, 0x00, 0x00, 0x1a, 0x00, 0x00, 0x00, 0x05, 0x00, 0x00, 0x00,
  0xaa, 0xfe, 0xff, 0xff, 0x0c, 0x00, 0x00, 0x00, 0x10, 0x00, 0x00, 0x00,
  0x03, 0x00, 0x00, 0x00, 0x01, 0x00, 0x00, 0x00, 0x1a, 0x00, 0x00, 0x00,
  0x02, 0x00, 0x00, 0x00, 0x19, 0x00, 0x00, 0x00, 0x07, 0x00, 0x00, 0x00,
  0x5e, 0xfe, 0xff, 0xff, 0x24, 0x00, 0x00, 0x00, 0x00, 0x00, 0x00, 0x05,
  0x34, 0x00, 0x00, 0x00, 0x38, 0x00, 0x00, 0x00, 0x06, 0x00, 0x00, 0x00,
  0x00, 0x00, 0x0e, 0x00, 0x18, 0x00, 0x17, 0x00, 0x10, 0x00, 0x0c, 0x00,
  0x08, 0x00, 0x04, 0x00, 0x0e, 0x00, 0x00, 0x00, 0x01, 0x00, 0x00, 0x00,
  0x02, 0x00, 0x00, 0x00, 0x01, 0x00, 0x00, 0x00, 0x02, 0x00, 0x00, 0x00,
  0x00, 0x00, 0x00, 0x01, 0x01, 0x00, 0x00, 0x00, 0x19, 0x00, 0x00, 0x00,
  0x01, 0x00, 0x00, 0x00, 0x18, 0x00, 0x00, 0x00, 0x5e, 0xff, 0xff, 0xff,
  0x14, 0x00, 0x00, 0x00, 0x00, 0x00, 0x00, 0x34, 0x10, 0x00, 0x00, 0x00,
  0x14, 0x00, 0x00, 0x00, 0x04, 0x00, 0x00, 0x00, 0x38, 0xe4, 0xff, 0xff,
  0x01, 0x00, 0x00, 0x00, 0x18, 0x00, 0x00, 0x00, 0x02, 0x00, 0x00, 0x00,
  0x17, 0x00, 0x00, 0x00, 0x04, 0x00, 0x00, 0x00, 0x4e, 0xff, 0xff, 0xff,
  0x0c, 0x00, 0x00, 0x00, 0x10, 0x00, 0x00, 0x00, 0x03, 0x00, 0x00, 0x00,
  0x01, 0x00, 0x00, 0x00, 0x17, 0x00, 0x00, 0x00, 0x02, 0x00, 0x00, 0x00,
  0x16, 0x00, 0x00, 0x00, 0x06, 0x00, 0x00, 0x00, 0xb2, 0xff, 0xff, 0xff,
  0x20, 0x00, 0x00, 0x00, 0x00, 0x00, 0x00, 0x01, 0x28, 0x00, 0x00, 0x00,
  0x2c, 0x00, 0x00, 0x00, 0x05, 0x00, 0x00, 0x00, 0x0c, 0x00, 0x10, 0x00,
  0x00, 0x00, 0x0c, 0x00, 0x08, 0x00, 0x07, 0x00, 0x0c, 0x00, 0x00, 0x00,
  0x00, 0x00, 0x00, 0x01, 0x01, 0x00, 0x00, 0x00, 0x01, 0x00, 0x00, 0x00,
  0x01, 0x00, 0x00, 0x00, 0x16, 0x00, 0x00, 0x00, 0x03, 0x00, 0x00, 0x00,
  0x15, 0x00, 0x00, 0x00, 0x10, 0x00, 0x00, 0x00, 0x0f, 0x00, 0x00, 0x00,
  0x00, 0x00, 0x0e, 0x00, 0x18, 0x00, 0x14, 0x00, 0x10, 0x00, 0x0c, 0x00,
  0x0b, 0x00, 0x04, 0x00, 0x0e, 0x00, 0x00, 0x00, 0x14, 0x00, 0x00, 0x00,
  0x00, 0x00, 0x00, 0x34, 0x10, 0x00, 0x00, 0x00, 0x14, 0x00, 0x00, 0x00,
  0x04, 0x00, 0x00, 0x00, 0xe8, 0xe4, 0xff, 0xff, 0x01, 0x00, 0x00, 0x00,
  0x15, 0x00, 0x00, 0x00, 0x02, 0x00, 0x00, 0x00, 0x14, 0x00, 0x00, 0x00,
  0x05, 0x00, 0x00, 0x00, 0x00, 0x00, 0x0a, 0x00, 0x10, 0x00, 0x0c, 0x00,
  0x08, 0x00, 0x04, 0x00, 0x0a, 0x00, 0x00, 0x00, 0x0c, 0x00, 0x00, 0x00,
  0x10, 0x00, 0x00, 0x00, 0x03, 0x00, 0x00, 0x00, 0x01, 0x00, 0x00, 0x00,
  0x14, 0x00, 0x00, 0x00, 0x02, 0x00, 0x00, 0x00, 0x00, 0x00, 0x00, 0x00,
  0x13, 0x00, 0x00, 0x00, 0xbe, 0xff, 0xff, 0xff, 0x1c, 0x00, 0x00, 0x00,
  0x00, 0x00, 0x00, 0x3b, 0x1c, 0x00, 0x00, 0x00, 0x20, 0x00, 0x00, 0x00,
  0x02, 0x00, 0x00, 0x00, 0x00, 0x00, 0x06, 0x00, 0x08, 0x00, 0x04, 0x00,
  0x06, 0x00, 0x00, 0x00, 0x03, 0x00, 0x00, 0x00, 0x01, 0x00, 0x00, 0x00,
  0x13, 0x00, 0x00, 0x00, 0x03, 0x00, 0x00, 0x00, 0x12, 0x00, 0x00, 0x00,
  0x03, 0x00, 0x00, 0x00, 0x04, 0x00, 0x00, 0x00, 0x00, 0x00, 0x0e, 0x00,
  0x1a, 0x00, 0x14, 0x00, 0x10, 0x00, 0x0c, 0x00, 0x0b, 0x00, 0x04, 0x00,
  0x0e, 0x00, 0x00, 0x00, 0x24, 0x00, 0x00, 0x00, 0x00, 0x00, 0x00, 0x20,
  0x24, 0x00, 0x00, 0x00, 0x28, 0x00, 0x00, 0x00, 0x01, 0x00, 0x00, 0x00,
  0x00, 0x00, 0x0e, 0x00, 0x08, 0x00, 0x00, 0x00, 0x00, 0x00, 0x00, 0x00,
  0x00, 0x00, 0x04, 0x00, 0x0e, 0x00, 0x00, 0x00, 0x01, 0x00, 0x00, 0x00,
  0x01, 0x00, 0x00, 0x00, 0x12, 0x00, 0x00, 0x00, 0x04, 0x00, 0x00, 0x00,
  0x11, 0x00, 0x00, 0x00, 0x01, 0x00, 0x00, 0x00, 0x02, 0x00, 0x00, 0x00,
  0x02, 0x00, 0x00, 0x00, 0x00, 0x00, 0x0e, 0x00, 0x16, 0x00, 0x00, 0x00,
  0x10, 0x00, 0x0c, 0x00, 0x0b, 0x00, 0x04, 0x00, 0x0e, 0x00, 0x00, 0x00,
  0x18, 0x00, 0x00, 0x00, 0x00, 0x00, 0x00, 0x37, 0x18, 0x00, 0x00, 0x00,
  0x1c, 0x00, 0x00, 0x00, 0x00, 0x00, 0x06, 0x00, 0x08, 0x00, 0x07, 0x00,
  0x06, 0x00, 0x00, 0x00, 0x00, 0x00, 0x00, 0x02, 0x01, 0x00, 0x00, 0x00,
  0x11, 0x00, 0x00, 0x00, 0x01, 0x00, 0x00, 0x00, 0x00, 0x00, 0x00, 0x00,
  0x01, 0x00, 0x00, 0x00, 0x21, 0x00, 0x00, 0x00, 0x01, 0x00, 0x00, 0x00,
  0x00, 0x00, 0x00, 0x00, 0x22, 0x00, 0x00, 0x00, 0x34, 0x1a, 0x00, 0x00,
  0xbc, 0x19, 0x00, 0x00, 0x64, 0x19, 0x00, 0x00, 0x10, 0x19, 0x00, 0x00,
  0xd4, 0x18, 0x00, 0x00, 0x98, 0x18, 0x00, 0x00, 0x3c, 0x18, 0x00, 0x00,
  0xdc, 0x17, 0x00, 0x00, 0x80, 0x17, 0x00, 0x00, 0xe4, 0x16, 0x00, 0x00,
  0x40, 0x16, 0x00, 0x00, 0x44, 0x14, 0x00, 0x00, 0x60, 0x12, 0x00, 0x00,
  0xec, 0x0f, 0x00, 0x00, 0xf8, 0x0d, 0x00, 0x00, 0x54, 0x0c, 0x00, 0x00,
  0x20, 0x0b, 0x00, 0x00, 0xd0, 0x0a, 0x00, 0x00, 0x7c, 0x0a, 0x00, 0x00,
  0x24, 0x0a, 0x00, 0x00, 0x9c, 0x09, 0x00, 0x00, 0xfc, 0x08, 0x00, 0x00,
  0xe8, 0x07, 0x00, 0x00, 0xf8, 0x06, 0x00, 0x00, 0x50, 0x06, 0x00, 0x00,
  0xb4, 0x05, 0x00, 0x00, 0x1c, 0x05, 0x00, 0x00, 0x7c, 0x04, 0x00, 0x00,
  0x58, 0x03, 0x00, 0x00, 0x60, 0x02, 0x00, 0x00, 0xd0, 0x01, 0x00, 0x00,
  0x1c, 0x01, 0x00, 0x00, 0x80, 0x00, 0x00, 0x00, 0x04, 0x00, 0x00, 0x00,
  0x6a, 0xe6, 0xff, 0xff, 0x00, 0x00, 0x00, 0x01, 0x18, 0x00, 0x00, 0x00,
  0x20, 0x00, 0x00, 0x00, 0x3c, 0x00, 0x00, 0x00, 0x22, 0x00, 0x00, 0x00,
  0x00, 0x00, 0x00, 0x09, 0x50, 0x00, 0x00, 0x00, 0x02, 0x00, 0x00, 0x00,
  0xff, 0xff, 0xff, 0xff, 0x05, 0x00, 0x00, 0x00, 0x54, 0xe6, 0xff, 0xff,
  0x08, 0x00, 0x00, 0x00, 0x10, 0x00, 0x00, 0x00, 0x01, 0x00, 0x00, 0x00,
  0x80, 0xff, 0xff, 0xff, 0xff, 0xff, 0xff, 0xff, 0x01, 0x00, 0x00, 0x00,
  0x00, 0x00, 0x80, 0x3b, 0x1b, 0x00, 0x00, 0x00, 0x53, 0x74, 0x61, 0x74,
  0x65, 0x66, 0x75, 0x6c, 0x50, 0x61, 0x72, 0x74, 0x69, 0x74, 0x69, 0x6f,
  0x6e, 0x65, 0x64, 0x43, 0x61, 0x6c, 0x6c, 0x5f, 0x31, 0x3a, 0x30, 0x00,
  0x02, 0x00, 0x00, 0x00, 0x01, 0x00, 0x00, 0x00, 0x05, 0x00, 0x00, 0x00,
  0xe2, 0xe6, 0xff, 0xff, 0x00, 0x00, 0x00, 0x01, 0x18, 0x00, 0x00, 0x00,
  0x20, 0x00, 0x00, 0x00, 0x3c, 0x00, 0x00, 0x00, 0x21, 0x00, 0x00, 0x00,
  0x00, 0x00, 0x00, 0x09, 0x70, 0x00, 0x00, 0x00, 0x02, 0x00, 0x00, 0x00,
  0xff, 0xff, 0xff, 0xff, 0x05, 0x00, 0x00, 0x00, 0xcc, 0xe6, 0xff, 0xff,
  0x08, 0x00, 0x00, 0x00, 0x10, 0x00, 0x00, 0x00, 0x01, 0x00, 0x00, 0x00,
  0xe5, 0xff, 0xff, 0xff, 0xff, 0xff, 0xff, 0xff, 0x01, 0x00, 0x00, 0x00,
  0x8a, 0x1d, 0x09, 0x3e, 0x3a, 0x00, 0x00, 0x00, 0x66, 0x75, 0x6e, 0x63,
  0x74, 0x69, 0x6f, 0x6e, 0x61, 0x6c, 0x5f, 0x31, 0x2f, 0x6f, 0x75, 0x74,
  0x70, 0x75, 0x74, 0x5f, 0x31, 0x2f, 0x4d, 0x61, 0x74, 0x4d, 0x75, 0x6c,
  0x3b, 0x66, 0x75, 0x6e, 0x63, 0x74, 0x69, 0x6f, 0x6e, 0x61, 0x6c, 0x5f,
  0x31, 0x2f, 0x6f, 0x75, 0x74, 0x70, 0x75, 0x74, 0x5f, 0x31, 0x2f, 0x42,
  0x69, 0x61, 0x73, 0x41, 0x64, 0x64, 0x00, 0x00, 0x02, 0x00, 0x00, 0x00,
  0x01, 0x00, 0x00, 0x00, 0x05, 0x00, 0x00, 0x00, 0x7a, 0xe7, 0xff, 0xff,
  0x00, 0x00, 0x00, 0x01, 0x18, 0x00, 0x00, 0x00, 0x20, 0x00, 0x00, 0x00,
  0x3c, 0x00, 0x00, 0x00, 0x20, 0x00, 0x00, 0x00, 0x00, 0x00, 0x00, 0x09,
  0x88, 0x00, 0x00, 0x00, 0x02, 0x00, 0x00, 0x00, 0xff, 0xff, 0xff, 0xff,
  0x20, 0x00, 0x00, 0x00, 0x64, 0xe7, 0xff, 0xff, 0x08, 0x00, 0x00, 0x00,
  0x10, 0x00, 0x00, 0x00, 0x01, 0x00, 0x00, 0x00, 0x80, 0xff, 0xff, 0xff,
  0xff, 0xff, 0xff, 0xff, 0x01, 0x00, 0x00, 0x00, 0x32, 0x50, 0xe4, 0x3c,
  0x52, 0x00, 0x00, 0x00, 0x66, 0x75, 0x6e, 0x63, 0x74, 0x69, 0x6f, 0x6e,
  0x61, 0x6c, 0x5f, 0x31, 0x2f, 0x64, 0x65, 0x6e, 0x73, 0x65, 0x5f, 0x31,
  0x2f, 0x4d, 0x61, 0x74, 0x4d, 0x75, 0x6c, 0x3b, 0x66, 0x75, 0x6e, 0x63,
  0x74, 0x69, 0x6f, 0x6e, 0x61, 0x6c, 0x5f, 0x31, 0x2f, 0x64, 0x65, 0x6e,
  0x73, 0x65, 0x5f, 0x31, 0x2f, 0x52, 0x65, 0x6c, 0x75, 0x3b, 0x66, 0x75,
  0x6e, 0x63, 0x74, 0x69, 0x6f, 0x6e, 0x61, 0x6c, 0x5f, 0x31, 0x2f, 0x64,
  0x65, 0x6e, 0x73, 0x65, 0x5f, 0x31, 0x2f, 0x42, 0x69, 0x61, 0x73, 0x41,
  0x64, 0x64, 0x00, 0x00, 0x02, 0x00, 0x00, 0x00, 0x01, 0x00, 0x00, 0x00,
  0x20, 0x00, 0x00, 0x00, 0x2a, 0xe8, 0xff, 0xff, 0x00, 0x00, 0x00, 0x01,
  0x18, 0x00, 0x00, 0x00, 0x20, 0x00, 0x00, 0x00, 0x3c, 0x00, 0x00, 0x00,
  0x1f, 0x00, 0x00, 0x00, 0x00, 0x00, 0x00, 0x09, 0x64, 0x00, 0x00, 0x00,
  0x02, 0x00, 0x00, 0x00, 0xff, 0xff, 0xff, 0xff, 0x20, 0x00, 0x00, 0x00,
  0x14, 0xe8, 0xff, 0xff, 0x08, 0x00, 0x00, 0x00, 0x10, 0x00, 0x00, 0x00,
  0x01, 0x00, 0x00, 0x00, 0x80, 0xff, 0xff, 0xff, 0xff, 0xff, 0xff, 0xff,
  0x01, 0x00, 0x00, 0x00, 0x63, 0x09, 0x55, 0x3c, 0x2c, 0x00, 0x00, 0x00,
  0x66, 0x75, 0x6e, 0x63, 0x74, 0x69, 0x6f, 0x6e, 0x61, 0x6c, 0x5f, 0x31,
  0x2f, 0x67, 0x6c, 0x6f, 0x62, 0x61, 0x6c, 0x5f, 0x61, 0x76, 0x65, 0x72,
  0x61, 0x67, 0x65, 0x5f, 0x70, 0x6f, 0x6f, 0x6c, 0x69, 0x6e, 0x67, 0x31,
  0x64, 0x5f, 0x31, 0x2f, 0x4d, 0x65, 0x61, 0x6e, 0x00, 0x00, 0x00, 0x00,
  0x02, 0x00, 0x00, 0x00, 0x01, 0x00, 0x00, 0x00, 0x20, 0x00, 0x00, 0x00,
  0xb6, 0xe8, 0xff, 0xff, 0x00, 0x00, 0x00, 0x01, 0x18, 0x00, 0x00, 0x00,
  0x24, 0x00, 0x00, 0x00, 0x44, 0x00, 0x00, 0x00, 0x1e, 0x00, 0x00, 0x00,
  0x00, 0x00, 0x00, 0x09, 0xc8, 0x00, 0x00, 0x00, 0x03, 0x00, 0x00, 0x00,
  0xff, 0xff, 0xff, 0xff, 0x08, 0x00, 0x00, 0x00, 0x20, 0x00, 0x00, 0x00,
  0xa4, 0xe8, 0xff, 0xff, 0x08, 0x00, 0x00, 0x00, 0x14, 0x00, 0x00, 0x00,
  0x01, 0x00, 0x00, 0x00, 0x80, 0xff, 0xff, 0xff, 0xff, 0xff, 0xff, 0xff,
  0x00, 0x00, 0x00, 0x00, 0x01, 0x00, 0x00, 0x00, 0xde, 0x51, 0x1d, 0x3d,
  0x88, 0x00, 0x00, 0x00, 0x66, 0x75, 0x6e, 0x63, 0x74, 0x69, 0x6f, 0x6e,
  0x61, 0x6c, 0x5f, 0x31, 0x2f, 0x63, 0x6f, 0x6e, 0x76, 0x31, 0x64, 0x5f,
  0x31, 0x5f, 0x32, 0x2f, 0x52, 0x65, 0x6c, 0x75, 0x3b, 0x66, 0x75, 0x6e,
  0x63, 0x74, 0x69, 0x6f, 0x6e, 0x61, 0x6c, 0x5f, 0x31, 0x2f, 0x63, 0x6f,
  0x6e, 0x76, 0x31, 0x64, 0x5f, 0x31, 0x5f, 0x32, 0x2f, 0x42, 0x69, 0x61,
  0x73, 0x41, 0x64, 0x64, 0x3b, 0x66, 0x75, 0x6e, 0x63, 0x74, 0x69, 0x6f,
  0x6e, 0x61, 0x6c, 0x5f, 0x31, 0x2f, 0x63, 0x6f, 0x6e, 0x76, 0x31, 0x64,
  0x5f, 0x31, 0x5f, 0x32, 0x2f, 0x63, 0x6f, 0x6e, 0x76, 0x6f, 0x6c, 0x75,
  0x74, 0x69, 0x6f, 0x6e, 0x2f, 0x53, 0x71, 0x75, 0x65, 0x65, 0x7a, 0x65,
  0x3b, 0x66, 0x75, 0x6e, 0x63, 0x74, 0x69, 0x6f, 0x6e, 0x61, 0x6c, 0x5f,
  0x31, 0x2f, 0x63, 0x6f, 0x6e, 0x76, 0x31, 0x64, 0x5f, 0x31, 0x5f, 0x32,
  0x2f, 0x53, 0x71, 0x75, 0x65, 0x65, 0x7a, 0x65, 0x00, 0x00, 0x00, 0x00,
  0x03, 0x00, 0x00, 0x00, 0x01, 0x00, 0x00, 0x00, 0x08, 0x00, 0x00, 0x00,
  0x20, 0x00, 0x00, 0x00, 0xaa, 0xe9, 0xff, 0xff, 0x00, 0x00, 0x00, 0x01,
  0x18, 0x00, 0x00, 0x00, 0x28, 0x00, 0x00, 0x00, 0x48, 0x00, 0x00, 0x00,
  0x1d, 0x00, 0x00, 0x00, 0x00, 0x00, 0x00, 0x09, 0xf0, 0x00, 0x00, 0x00,
  0x04, 0x00, 0x00, 0x00, 0xff, 0xff, 0xff, 0xff, 0x01, 0x00, 0x00, 0x00,
  0x08, 0x00, 0x00, 0x00, 0x20, 0x00, 0x00, 0x00, 0x9c, 0xe9, 0xff, 0xff,
  0x08, 0x00, 0x00, 0x00, 0x14, 0x00, 0x00, 0x00, 0x01, 0x00, 0x00, 0x00,
  0x80, 0xff, 0xff, 0xff, 0xff, 0xff, 0xff, 0xff, 0x00, 0x00, 0x00, 0x00,
  0x01, 0x00, 0x00, 0x00, 0xde, 0x51, 0x1d, 0x3d, 0xad, 0x00, 0x00, 0x00,
  0x66, 0x75, 0x6e, 0x63, 0x74, 0x69, 0x6f, 0x6e, 0x61, 0x6c, 0x5f, 0x31,
  0x2f, 0x63, 0x6f, 0x6e, 0x76, 0x31, 0x64, 0x5f, 0x31, 0x5f, 0x32, 0x2f,
  0x52, 0x65, 0x6c, 0x75, 0x3b, 0x66, 0x75, 0x6e, 0x63, 0x74, 0x69, 0x6f,
  0x6e, 0x61, 0x6c, 0x5f, 0x31, 0x2f, 0x63, 0x6f, 0x6e, 0x76, 0x31, 0x64,
  0x5f, 0x31, 0x5f, 0x32, 0x2f, 0x42, 0x69, 0x61, 0x73, 0x41, 0x64, 0x64,
  0x3b, 0x66, 0x75, 0x6e, 0x63, 0x74, 0x69, 0x6f, 0x6e, 0x61, 0x6c, 0x5f,
  0x31, 0x2f, 0x63, 0x6f, 0x6e, 0x76, 0x31, 0x64, 0x5f, 0x31, 0x5f, 0x32,
  0x2f, 0x63, 0x6f, 0x6e, 0x76, 0x6f, 0x6c, 0x75, 0x74, 0x69, 0x6f, 0x6e,
  0x2f, 0x53, 0x71, 0x75, 0x65, 0x65, 0x7a, 0x65, 0x3b, 0x66, 0x75, 0x6e,
  0x63, 0x74, 0x69, 0x6f, 0x6e, 0x61, 0x6c, 0x5f, 0x31, 0x2f, 0x63, 0x6f,
  0x6e, 0x76, 0x31, 0x64, 0x5f, 0x31, 0x5f, 0x32, 0x2f, 0x53, 0x71, 0x75,
  0x65, 0x65, 0x7a, 0x65, 0x3b, 0x66, 0x75, 0x6e, 0x63, 0x74, 0x69, 0x6f,
  0x6e, 0x61, 0x6c, 0x5f, 0x31, 0x2f, 0x63, 0x6f, 0x6e, 0x76, 0x31, 0x64,
  0x5f, 0x31, 0x5f, 0x32, 0x2f, 0x63, 0x6f, 0x6e, 0x76, 0x6f, 0x6c, 0x75,
  0x74, 0x69, 0x6f, 0x6e, 0x31, 0x00, 0x00, 0x00, 0x04, 0x00, 0x00, 0x00,
  0x01, 0x00, 0x00, 0x00, 0x01, 0x00, 0x00, 0x00, 0x08, 0x00, 0x00, 0x00,
  0x20, 0x00, 0x00, 0x00, 0xca, 0xea, 0xff, 0xff, 0x00, 0x00, 0x00, 0x01,
  0x18, 0x00, 0x00, 0x00, 0x28, 0x00, 0x00, 0x00, 0x44, 0x00, 0x00, 0x00,
  0x1c, 0x00, 0x00, 0x00, 0x00, 0x00, 0x00, 0x09, 0x6c, 0x00, 0x00, 0x00,
  0x04, 0x00, 0x00, 0x00, 0xff, 0xff, 0xff, 0xff, 0x01, 0x00, 0x00, 0x00,
  0x08, 0x00, 0x00, 0x00, 0x10, 0x00, 0x00, 0x00, 0xbc, 0xea, 0xff, 0xff,
  0x08, 0x00, 0x00, 0x00, 0x10, 0x00, 0x00, 0x00, 0x01, 0x00, 0x00, 0x00,
  0x80, 0xff, 0xff, 0xff, 0xff, 0xff, 0xff, 0xff, 0x01, 0x00, 0x00, 0x00,
  0x24, 0x18, 0x83, 0x3c, 0x2e, 0x00, 0x00, 0x00, 0x66, 0x75, 0x6e, 0x63,
  0x74, 0x69, 0x6f, 0x6e, 0x61, 0x6c, 0x5f, 0x31, 0x2f, 0x63, 0x6f, 0x6e,
  0x76, 0x31, 0x64, 0x5f, 0x31, 0x5f, 0x32, 0x2f, 0x63, 0x6f, 0x6e, 0x76,
  0x6f, 0x6c, 0x75, 0x74, 0x69, 0x6f, 0x6e, 0x2f, 0x45, 0x78, 0x70, 0x61,
  0x6e, 0x64, 0x44, 0x69, 0x6d, 0x73, 0x00, 0x00, 0x04, 0x00, 0x00, 0x00,
  0x01, 0x00, 0x00, 0x00, 0x01, 0x00, 0x00, 0x00, 0x08, 0x00, 0x00, 0x00,
  0x10, 0x00, 0x00, 0x00, 0x66, 0xeb, 0xff, 0xff, 0x00, 0x00, 0x00, 0x01,
  0x18, 0x00, 0x00, 0x00, 0x24, 0x00, 0x00, 0x00, 0x40, 0x00, 0x00, 0x00,
  0x1b, 0x00, 0x00, 0x00, 0x00, 0x00, 0x00, 0x09, 0x68, 0x00, 0x00, 0x00,
  0x03, 0x00, 0x00, 0x00, 0xff, 0xff, 0xff, 0xff, 0x08, 0x00, 0x00, 0x00,
  0x10, 0x00, 0x00, 0x00, 0x54, 0xeb, 0xff, 0xff, 0x08, 0x00, 0x00, 0x00,
  0x10, 0x00, 0x00, 0x00, 0x01, 0x00, 0x00, 0x00, 0x80, 0xff, 0xff, 0xff,
  0xff, 0xff, 0xff, 0xff, 0x01, 0x00, 0x00, 0x00, 0x24, 0x18, 0x83, 0x3c,
  0x2f, 0x00, 0x00, 0x00, 0x66, 0x75, 0x6e, 0x63, 0x74, 0x69, 0x6f, 0x6e,
  0x61, 0x6c, 0x5f, 0x31, 0x2f, 0x6d, 0x61, 0x78, 0x5f, 0x70, 0x6f, 0x6f,
  0x6c, 0x69, 0x6e, 0x67, 0x31, 0x64, 0x5f, 0x31, 0x2f, 0x4d, 0x61, 0x78,
  0x50, 0x6f, 0x6f, 0x6c, 0x31, 0x64, 0x2f, 0x53, 0x71, 0x75, 0x65, 0x65,
  0x7a, 0x65, 0x31, 0x00, 0x03, 0x00, 0x00, 0x00, 0x01, 0x00, 0x00, 0x00,
  0x08, 0x00, 0x00, 0x00, 0x10, 0x00, 0x00, 0x00, 0xfa, 0xeb, 0xff, 0xff,
  0x00, 0x00, 0x00, 0x01, 0x18, 0x00, 0x00, 0x00, 0x28, 0x00, 0x00, 0x00,
  0x48, 0x00, 0x00, 0x00, 0x1a, 0x00, 0x00, 0x00, 0x00, 0x00, 0x00, 0x09,
  0x68, 0x00, 0x00, 0x00, 0x04, 0x00, 0x00, 0x00, 0xff, 0xff, 0xff, 0xff,
  0x01, 0x00, 0x00, 0x00, 0x08, 0x00, 0x00, 0x00, 0x10, 0x00, 0x00, 0x00,
  0xec, 0xeb, 0xff, 0xff, 0x08, 0x00, 0x00, 0x00, 0x14, 0x00, 0x00, 0x00,
  0x01, 0x00, 0x00, 0x00, 0x80, 0xff, 0xff, 0xff, 0xff, 0xff, 0xff, 0xff,
  0x00, 0x00, 0x00, 0x00, 0x01, 0x00, 0x00, 0x00, 0x24, 0x18, 0x83, 0x3c,
  0x26, 0x00, 0x00, 0x00, 0x66, 0x75, 0x6e, 0x63, 0x74, 0x69, 0x6f, 0x6e,
  0x61, 0x6c, 0x5f, 0x31, 0x2f, 0x6d, 0x61, 0x78, 0x5f, 0x70, 0x6f, 0x6f,
  0x6c, 0x69, 0x6e, 0x67, 0x31, 0x64, 0x5f, 0x31, 0x2f, 0x4d, 0x61, 0x78,
  0x50, 0x6f, 0x6f, 0x6c, 0x31, 0x64, 0x00, 0x00, 0x04, 0x00, 0x00, 0x00,
  0x01, 0x00, 0x00, 0x00, 0x01, 0x00, 0x00, 0x00, 0x08, 0x00, 0x00, 0x00,
  0x10, 0x00, 0x00, 0x00, 0x92, 0xec, 0xff, 0xff, 0x00, 0x00, 0x00, 0x01,
  0x18, 0x00, 0x00, 0x00, 0x28, 0x00, 0x00, 0x00, 0x48, 0x00, 0x00, 0x00,
  0x19, 0x00, 0x00, 0x00, 0x00, 0x00, 0x00, 0x09, 0x74, 0x00, 0x00, 0x00,
  0x04, 0x00, 0x00, 0x00, 0xff, 0xff, 0xff, 0xff, 0x01, 0x00, 0x00, 0x00,
  0x10, 0x00, 0x00, 0x00, 0x10, 0x00, 0x00, 0x00, 0x84, 0xec, 0xff, 0xff,
  0x08, 0x00, 0x00, 0x00, 0x14, 0x00, 0x00, 0x00, 0x01, 0x00, 0x00, 0x00,
  0x80, 0xff, 0xff, 0xff, 0xff, 0xff, 0xff, 0xff, 0x00, 0x00, 0x00, 0x00,
  0x01, 0x00, 0x00, 0x00, 0x24, 0x18, 0x83, 0x3c, 0x31, 0x00, 0x00, 0x00,
  0x66, 0x75, 0x6e, 0x63, 0x74, 0x69, 0x6f, 0x6e, 0x61, 0x6c, 0x5f, 0x31,
  0x2f, 0x6d, 0x61, 0x78, 0x5f, 0x70, 0x6f, 0x6f, 0x6c, 0x69, 0x6e, 0x67,
  0x31, 0x64, 0x5f, 0x31, 0x2f, 0x4d, 0x61, 0x78, 0x50, 0x6f, 0x6f, 0x6c,
  0x31, 0x64, 0x2f, 0x45, 0x78, 0x70, 0x61, 0x6e, 0x64, 0x44, 0x69, 0x6d,
  0x73, 0x00, 0x00, 0x00, 0x04, 0x00, 0x00, 0x00, 0x01, 0x00, 0x00, 0x00,
  0x01, 0x00, 0x00, 0x00, 0x10, 0x00, 0x00, 0x00, 0x10, 0x00, 0x00, 0x00,
  0x36, 0xed, 0xff, 0xff, 0x00, 0x00, 0x00, 0x01, 0x18, 0x00, 0x00, 0x00,
  0x24, 0x00, 0x00, 0x00, 0x44, 0x00, 0x00, 0x00, 0x18, 0x00, 0x00, 0x00,
  0x00, 0x00, 0x00, 0x09, 0xc0, 0x00, 0x00, 0x00, 0x03, 0x00, 0x00, 0x00,
  0xff, 0xff, 0xff, 0xff, 0x10, 0x00, 0x00, 0x00, 0x10, 0x00, 0x00, 0x00,
  0x24, 0xed, 0xff, 0xff, 0x08, 0x00, 0x00, 0x00, 0x14, 0x00, 0x00, 0x00,
  0x01, 0x00, 0x00, 0x00, 0x80, 0xff, 0xff, 0xff, 0xff, 0xff, 0xff, 0xff,
  0x00, 0x00, 0x00, 0x00, 0x01, 0x00, 0x00, 0x00, 0x24, 0x18, 0x83, 0x3c,
  0x80, 0x00, 0x00, 0x00, 0x66, 0x75, 0x6e, 0x63, 0x74, 0x69, 0x6f, 0x6e,
  0x61, 0x6c, 0x5f, 0x31, 0x2f, 0x63, 0x6f, 0x6e, 0x76, 0x31, 0x64, 0x5f,
  0x31, 0x2f, 0x52, 0x65, 0x6c, 0x75, 0x3b, 0x66, 0x75, 0x6e, 0x63, 0x74,
  0x69, 0x6f, 0x6e, 0x61, 0x6c, 0x5f, 0x31, 0x2f, 0x63, 0x6f, 0x6e, 0x76,
  0x31, 0x64, 0x5f, 0x31, 0x2f, 0x42, 0x69, 0x61, 0x73, 0x41, 0x64, 0x64,
  0x3b, 0x66, 0x75, 0x6e, 0x63, 0x74, 0x69, 0x6f, 0x6e, 0x61, 0x6c, 0x5f,
  0x31, 0x2f, 0x63, 0x6f, 0x6e, 0x76, 0x31, 0x64, 0x5f, 0x31, 0x2f, 0x63,
  0x6f, 0x6e, 0x76, 0x6f, 0x6c, 0x75, 0x74, 0x69, 0x6f, 0x6e, 0x2f, 0x53,
  0x71, 0x75, 0x65, 0x65, 0x7a, 0x65, 0x3b, 0x66, 0x75, 0x6e, 0x63, 0x74,
  0x69, 0x6f, 0x6e, 0x61, 0x6c, 0x5f, 0x31, 0x2f, 0x63, 0x6f, 0x6e, 0x76,
  0x31, 0x64, 0x5f, 0x31, 0x2f, 0x53, 0x71, 0x75, 0x65, 0x65, 0x7a, 0x65,
  0x00, 0x00, 0x00, 0x00, 0x03, 0x00, 0x00, 0x00, 0x01, 0x00, 0x00, 0x00,
  0x10, 0x00, 0x00, 0x00, 0x10, 0x00, 0x00, 0x00, 0x22, 0xee, 0xff, 0xff,
  0x00, 0x00, 0x00, 0x01, 0x18, 0x00, 0x00, 0x00, 0x28, 0x00, 0x00, 0x00,
  0x44, 0x00, 0x00, 0x00, 0x17, 0x00, 0x00, 0x00, 0x00, 0x00, 0x00, 0x09,
  0xe0, 0x00, 0x00, 0x00, 0x04, 0x00, 0x00, 0x00, 0xff, 0xff, 0xff, 0xff,
  0x01, 0x00, 0x00, 0x00, 0x10, 0x00, 0x00, 0x00, 0x10, 0x00, 0x00, 0x00,
  0x14, 0xee, 0xff, 0xff, 0x08, 0x00, 0x00, 0x00, 0x10, 0x00, 0x00, 0x00,
  0x01, 0x00, 0x00, 0x00, 0x80, 0xff, 0xff, 0xff, 0xff, 0xff, 0xff, 0xff,
  0x01, 0x00, 0x00, 0x00, 0x24, 0x18, 0x83, 0x3c, 0xa3, 0x00, 0x00, 0x00,
  0x66, 0x75, 0x6e, 0x63, 0x74, 0x69, 0x6f, 0x6e, 0x61, 0x6c, 0x5f, 0x31,
  0x2f, 0x63, 0x6f, 0x6e, 0x76, 0x31, 0x64, 0x5f, 0x31, 0x2f, 0x52, 0x65,
  0x6c, 0x75, 0x3b, 0x66, 0x75, 0x6e, 0x63, 0x74, 0x69, 0x6f, 0x6e, 0x61,
  0x6c, 0x5f, 0x31, 0x2f, 0x63, 0x6f, 0x6e, 0x76, 0x31, 0x64, 0x5f, 0x31,
  0x2f, 0x42, 0x69, 0x61, 0x73, 0x41, 0x64, 0x64, 0x3b, 0x66, 0x75, 0x6e,
  0x63, 0x74, 0x69, 0x6f, 0x6e, 0x61, 0x6c, 0x5f, 0x31, 0x2f, 0x63, 0x6f,
  0x6e, 0x76, 0x31, 0x64, 0x5f, 0x31, 0x2f, 0x63, 0x6f, 0x6e, 0x76, 0x6f,
  0x6c, 0x75, 0x74, 0x69, 0x6f, 0x6e, 0x2f, 0x53, 0x71, 0x75, 0x65, 0x65,
  0x7a, 0x65, 0x3b, 0x66, 0x75, 0x6e, 0x63, 0x74, 0x69, 0x6f, 0x6e, 0x61,
  0x6c, 0x5f, 0x31, 0x2f, 0x63, 0x6f, 0x6e, 0x76, 0x31, 0x64, 0x5f, 0x31,
  0x2f, 0x53, 0x71, 0x75, 0x65, 0x65, 0x7a, 0x65, 0x3b, 0x66, 0x75, 0x6e,
  0x63, 0x74, 0x69, 0x6f, 0x6e, 0x61, 0x6c, 0x5f, 0x31, 0x2f, 0x63, 0x6f,
  0x6e, 0x76, 0x31, 0x64, 0x5f, 0x31, 0x2f, 0x63, 0x6f, 0x6e, 0x76, 0x6f,
  0x6c, 0x75, 0x74, 0x69, 0x6f, 0x6e, 0x31, 0x00, 0x04, 0x00, 0x00, 0x00,
  0x01, 0x00, 0x00, 0x00, 0x01, 0x00, 0x00, 0x00, 0x10, 0x00, 0x00, 0x00,
  0x10, 0x00, 0x00, 0x00, 0x32, 0xef, 0xff, 0xff, 0x00, 0x00, 0x00, 0x01,
  0x18, 0x00, 0x00, 0x00, 0x28, 0x00, 0x00, 0x00, 0x44, 0x00, 0x00, 0x00,
  0x16, 0x00, 0x00, 0x00, 0x00, 0x00, 0x00, 0x09, 0x6c, 0x00, 0x00, 0x00,
  0x04, 0x00, 0x00, 0x00, 0xff, 0xff, 0xff, 0xff, 0x01, 0x00, 0x00, 0x00,
  0x10, 0x00, 0x00, 0x00, 0x01, 0x00, 0x00, 0x00, 0x24, 0xef, 0xff, 0xff,
  0x08, 0x00, 0x00, 0x00, 0x10, 0x00, 0x00, 0x00, 0x01, 0x00, 0x00, 0x00,
  0x04, 0x00, 0x00, 0x00, 0x00, 0x00, 0x00, 0x00, 0x01, 0x00, 0x00, 0x00,
  0xb0, 0x11, 0xa2, 0x3c, 0x2c, 0x00, 0x00, 0x00, 0x66, 0x75, 0x6e, 0x63,
  0x74, 0x69, 0x6f, 0x6e, 0x61, 0x6c, 0x5f, 0x31, 0x2f, 0x63, 0x6f, 0x6e,
  0x76, 0x31, 0x64, 0x5f, 0x31, 0x2f, 0x63, 0x6f, 0x6e, 0x76, 0x6f, 0x6c,
  0x75, 0x74, 0x69, 0x6f, 0x6e, 0x2f, 0x45, 0x78, 0x70, 0x61, 0x6e, 0x64,
  0x44, 0x69, 0x6d, 0x73, 0x00, 0x00, 0x00, 0x00, 0x04, 0x00, 0x00, 0x00,
  0x01, 0x00, 0x00, 0x00, 0x01, 0x00, 0x00, 0x00, 0x10, 0x00, 0x00, 0x00,
  0x01, 0x00, 0x00, 0x00, 0xce, 0xef, 0xff, 0xff, 0x00, 0x00, 0x00, 0x01,
  0x18, 0x00, 0x00, 0x00, 0x24, 0x00, 0x00, 0x00, 0x40, 0x00, 0x00, 0x00,
  0x15, 0x00, 0x00, 0x00, 0x00, 0x00, 0x00, 0x09, 0x58, 0x00, 0x00, 0x00,
  0x03, 0x00, 0x00, 0x00, 0xff, 0xff, 0xff, 0xff, 0x10, 0x00, 0x00, 0x00,
  0x01, 0x00, 0x00, 0x00, 0xbc, 0xef, 0xff, 0xff, 0x08, 0x00, 0x00, 0x00,
  0x10, 0x00, 0x00, 0x00, 0x01, 0x00, 0x00, 0x00, 0x04, 0x00, 0x00, 0x00,
  0x00, 0x00, 0x00, 0x00, 0x01, 0x00, 0x00, 0x00, 0xb0, 0x11, 0xa2, 0x3c,
  0x1e, 0x00, 0x00, 0x00, 0x66, 0x75, 0x6e, 0x63, 0x74, 0x69, 0x6f, 0x6e,
  0x61, 0x6c, 0x5f, 0x31, 0x2f, 0x72, 0x65, 0x73, 0x68, 0x61, 0x70, 0x65,
  0x5f, 0x31, 0x2f, 0x52, 0x65, 0x73, 0x68, 0x61, 0x70, 0x65, 0x00, 0x00,
  0x03, 0x00, 0x00, 0x00, 0x01, 0x00, 0x00, 0x00, 0x10, 0x00, 0x00, 0x00,
  0x01, 0x00, 0x00, 0x00, 0xc6, 0xf0, 0xff, 0xff, 0x00, 0x00, 0x00, 0x01,
  0x14, 0x00, 0x00, 0x00, 0x14, 0x00, 0x00, 0x00, 0x14, 0x00, 0x00, 0x00,
  0x00, 0x00, 0x00, 0x02, 0x34, 0x00, 0x00, 0x00, 0xb0, 0xf0, 0xff, 0xff,
  0x24, 0x00, 0x00, 0x00, 0x66, 0x75, 0x6e, 0x63, 0x74, 0x69, 0x6f, 0x6e,
  0x61, 0x6c, 0x5f, 0x31, 0x2f, 0x72, 0x65, 0x73, 0x68, 0x61, 0x70, 0x65,
  0x5f, 0x31, 0x2f, 0x52, 0x65, 0x73, 0x68, 0x61, 0x70, 0x65, 0x2f, 0x73,
  0x68, 0x61, 0x70, 0x65, 0x00, 0x00, 0x00, 0x00, 0x01, 0x00, 0x00, 0x00,
  0x03, 0x00, 0x00, 0x00, 0x1a, 0xf1, 0xff, 0xff, 0x00, 0x00, 0x00, 0x01,
  0x14, 0x00, 0x00, 0x00, 0x14, 0x00, 0x00, 0x00, 0x13, 0x00, 0x00, 0x00,
  0x00, 0x00, 0x00, 0x02, 0x34, 0x00, 0x00, 0x00, 0x04, 0xf1, 0xff, 0xff,
  0x24, 0x00, 0x00, 0x00, 0x66, 0x75, 0x6e, 0x63, 0x74, 0x69, 0x6f, 0x6e,
  0x61, 0x6c, 0x5f, 0x31, 0x2f, 0x72, 0x65, 0x73, 0x68, 0x61, 0x70, 0x65,
  0x5f, 0x31, 0x2f, 0x73, 0x74, 0x72, 0x69, 0x64, 0x65, 0x64, 0x5f, 0x73,
  0x6c, 0x69, 0x63, 0x65, 0x00, 0x00, 0x00, 0x00, 0x00, 0x00, 0x00, 0x00,
  0x6a, 0xf1, 0xff, 0xff, 0x00, 0x00, 0x00, 0x01, 0x14, 0x00, 0x00, 0x00,
  0x14, 0x00, 0x00, 0x00, 0x12, 0x00, 0x00, 0x00, 0x00, 0x00, 0x00, 0x02,
  0x2c, 0x00, 0x00, 0x00, 0x54, 0xf1, 0xff, 0xff, 0x1c, 0x00, 0x00, 0x00,
  0x66, 0x75, 0x6e, 0x63, 0x74, 0x69, 0x6f, 0x6e, 0x61, 0x6c, 0x5f, 0x31,
  0x2f, 0x72, 0x65, 0x73, 0x68, 0x61, 0x70, 0x65, 0x5f, 0x31, 0x2f, 0x53,
  0x68, 0x61, 0x70, 0x65, 0x00, 0x00, 0x00, 0x00, 0x01, 0x00, 0x00, 0x00,
  0x02, 0x00, 0x00, 0x00, 0xb6, 0xf1, 0xff, 0xff, 0x00, 0x00, 0x00, 0x01,
  0x14, 0x00, 0x00, 0x00, 0xe8, 0x00, 0x00, 0x00, 0x11, 0x00, 0x00, 0x00,
  0x00, 0x00, 0x00, 0x09, 0x04, 0x01, 0x00, 0x00, 0x1c, 0xf1, 0xff, 0xff,
  0x08, 0x00, 0x00, 0x00, 0x8c, 0x00, 0x00, 0x00, 0x10, 0x00, 0x00, 0x00,
  0x00, 0x00, 0x00, 0x00, 0x00, 0x00, 0x00, 0x00, 0x00, 0x00, 0x00, 0x00,
  0x00, 0x00, 0x00, 0x00, 0x00, 0x00, 0x00, 0x00, 0x00, 0x00, 0x00, 0x00,
  0x00, 0x00, 0x00, 0x00, 0x00, 0x00, 0x00, 0x00, 0x00, 0x00, 0x00, 0x00,
  0x00, 0x00, 0x00, 0x00, 0x00, 0x00, 0x00, 0x00, 0x00, 0x00, 0x00, 0x00,
  0x00, 0x00, 0x00, 0x00, 0x00, 0x00, 0x00, 0x00, 0x00, 0x00, 0x00, 0x00,
  0x00, 0x00, 0x00, 0x00, 0x00, 0x00, 0x00, 0x00, 0x00, 0x00, 0x00, 0x00,
  0x00, 0x00, 0x00, 0x00, 0x00, 0x00, 0x00, 0x00, 0x00, 0x00, 0x00, 0x00,
  0x00, 0x00, 0x00, 0x00, 0x00, 0x00, 0x00, 0x00, 0x00, 0x00, 0x00, 0x00,
  0x00, 0x00, 0x00, 0x00, 0x00, 0x00, 0x00, 0x00, 0x00, 0x00, 0x00, 0x00,
  0x00, 0x00, 0x00, 0x00, 0x00, 0x00, 0x00, 0x00, 0x00, 0x00, 0x00, 0x00,
  0x00, 0x00, 0x00, 0x00, 0x00, 0x00, 0x00, 0x00, 0x00, 0x00, 0x00, 0x00,
  0x10, 0x00, 0x00, 0x00, 0xa0, 0x9f, 0xcb, 0x3b, 0x1d, 0xb7, 0xa6, 0x3b,
  0xa1, 0x3d, 0x83, 0x3b, 0xee, 0x94, 0x9e, 0x3b, 0x0f, 0xc5, 0x90, 0x3b,
  0x05, 0x59, 0xb2, 0x3b, 0x42, 0xb6, 0xb2, 0x3b, 0x8d, 0x06, 0xbd, 0x3b,
  0x56, 0xdd, 0xc8, 0x3b, 0x58, 0x33, 0xb5, 0x3b, 0x92, 0xf3, 0xba, 0x3b,
  0x6f, 0x08, 0x98, 0x3b, 0x0a, 0xa9, 0xc7, 0x3b, 0x10, 0x4a, 0x36, 0x3b,
  0xc9, 0x75, 0x9c, 0x3b, 0xf6, 0x2e, 0xe7, 0x3b, 0x21, 0x00, 0x00, 0x00,
  0x66, 0x75, 0x6e, 0x63, 0x74, 0x69, 0x6f, 0x6e, 0x61, 0x6c, 0x5f, 0x31,
  0x2f, 0x63, 0x6f, 0x6e, 0x76, 0x31, 0x64, 0x5f, 0x31, 0x2f, 0x63, 0x6f,
  0x6e, 0x76, 0x6f, 0x6c, 0x75, 0x74, 0x69, 0x6f, 0x6e, 0x00, 0x00, 0x00,
  0x04, 0x00, 0x00, 0x00, 0x10, 0x00, 0x00, 0x00, 0x01, 0x00, 0x00, 0x00,
  0x03, 0x00, 0x00, 0x00, 0x01, 0x00, 0x00, 0x00, 0xe6, 0xf2, 0xff, 0xff,
  0x00, 0x00, 0x00, 0x01, 0x14, 0x00, 0x00, 0x00, 0xe4, 0x00, 0x00, 0x00,
  0x10, 0x00, 0x00, 0x00, 0x00, 0x00, 0x00, 0x02, 0x80, 0x01, 0x00, 0x00,
  0x4c, 0xf2, 0xff, 0xff, 0x08, 0x00, 0x00, 0x00, 0x88, 0x00, 0x00, 0x00,
  0x10, 0x00, 0x00, 0x00, 0x00, 0x00, 0x00, 0x00, 0x00, 0x00, 0x00, 0x00,
  0x00, 0x00, 0x00, 0x00, 0x00, 0x00, 0x00, 0x00, 0x00, 0x00, 0x00, 0x00,
  0x00, 0x00, 0x00, 0x00, 0x00, 0x00, 0x00, 0x00, 0x00, 0x00, 0x00, 0x00,
  0x00, 0x00, 0x00, 0x00, 0x00, 0x00, 0x00, 0x00, 0x00, 0x00, 0x00, 0x00,
  0x00, 0x00, 0x00, 0x00, 0x00, 0x00, 0x00, 0x00, 0x00, 0x00, 0x00, 0x00,
  0x00, 0x00, 0x00, 0x00, 0x00, 0x00, 0x00, 0x00, 0x00, 0x00, 0x00, 0x00,
  0x00, 0x00, 0x00, 0x00, 0x00, 0x00, 0x00, 0x00, 0x00, 0x00, 0x00, 0x00,
  0x00, 0x00, 0x00, 0x00, 0x00, 0x00, 0x00, 0x00, 0x00, 0x00, 0x00, 0x00,
  0x00, 0x00, 0x00, 0x00, 0x00, 0x00, 0x00, 0x00, 0x00, 0x00, 0x00, 0x00,
  0x00, 0x00, 0x00, 0x00, 0x00, 0x00, 0x00, 0x00, 0x00, 0x00, 0x00, 0x00,
  0x00, 0x00, 0x00, 0x00, 0x00, 0x00, 0x00, 0x00, 0x00, 0x00, 0x00, 0x00,
  0x10, 0x00, 0x00, 0x00, 0x15, 0xe9, 0x00, 0x39, 0xca, 0x16, 0xd3, 0x38,
  0x22, 0x2c, 0xa6, 0x38, 0x67, 0xca, 0xc8, 0x38, 0x68, 0x4d, 0xb7, 0x38,
  0x4f, 0xd1, 0xe1, 0x38, 0x5d, 0x47, 0xe2, 0x38, 0x69, 0x56, 0xef, 0x38,
  0xe2, 0x53, 0xfe, 0x38, 0x05, 0x6e, 0xe5, 0x38, 0x1a, 0xb6, 0xec, 0x38,
  0xaf, 0x7f, 0xc0, 0x38, 0x88, 0xcd, 0xfc, 0x38, 0xed, 0xce, 0x66, 0x38,
  0xb1, 0x1a, 0xc6, 0x38, 0xb1, 0x5b, 0x12, 0x39, 0xa2, 0x00, 0x00, 0x00,
  0x66, 0x75, 0x6e, 0x63, 0x74, 0x69, 0x6f, 0x6e, 0x61, 0x6c, 0x5f, 0x31,
  0x2f, 0x63, 0x6f, 0x6e, 0x76, 0x31, 0x64, 0x5f, 0x31, 0x2f, 0x52, 0x65,
  0x6c, 0x75, 0x3b, 0x66, 0x75, 0x6e, 0x63, 0x74, 0x69, 0x6f, 0x6e, 0x61,
  0x6c, 0x5f, 0x31, 0x2f, 0x63, 0x6f, 0x6e, 0x76, 0x31, 0x64, 0x5f, 0x31,
  0x2f, 0x42, 0x69, 0x61, 0x73, 0x41, 0x64, 0x64, 0x3b, 0x66, 0x75, 0x6e,
  0x63, 0x74, 0x69, 0x6f, 0x6e, 0x61, 0x6c, 0x5f, 0x31, 0x2f, 0x63, 0x6f,
  0x6e, 0x76, 0x31, 0x64, 0x5f, 0x31, 0x2f, 0x63, 0x6f, 0x6e, 0x76, 0x6f,
  0x6c, 0x75, 0x74, 0x69, 0x6f, 0x6e, 0x2f, 0x53, 0x71, 0x75, 0x65, 0x65,
  0x7a, 0x65, 0x3b, 0x66, 0x75, 0x6e, 0x63, 0x74, 0x69, 0x6f, 0x6e, 0x61,
  0x6c, 0x5f, 0x31, 0x2f, 0x63, 0x6f, 0x6e, 0x76, 0x31, 0x64, 0x5f, 0x31,
  0x2f, 0x53, 0x71, 0x75, 0x65, 0x65, 0x7a, 0x65, 0x3b, 0x66, 0x75, 0x6e,
  0x63, 0x74, 0x69, 0x6f, 0x6e, 0x61, 0x6c, 0x5f, 0x31, 0x2f, 0x63, 0x6f,
  0x6e, 0x76, 0x31, 0x64, 0x5f, 0x31, 0x2f, 0x63, 0x6f, 0x6e, 0x76, 0x6f,
  0x6c, 0x75, 0x74, 0x69, 0x6f, 0x6e, 0x00, 0x00, 0x01, 0x00, 0x00, 0x00,
  0x10, 0x00, 0x00, 0x00, 0x86, 0xf4, 0xff, 0xff, 0x00, 0x00, 0x00, 0x01,
  0x14, 0x00, 0x00, 0x00, 0xa8, 0x01, 0x00, 0x00, 0x0f, 0x00, 0x00, 0x00,
  0x00, 0x00, 0x00, 0x09, 0xc4, 0x01, 0x00, 0x00, 0xec, 0xf3, 0xff, 0xff,
  0x08, 0x00, 0x00, 0x00, 0x0c, 0x01, 0x00, 0x00, 0x20, 0x00, 0x00, 0x00,
  0x00, 0x00, 0x00, 0x00, 0x00, 0x00, 0x00, 0x00, 0x00, 0x00, 0x00, 0x00,
  0x00, 0x00, 0x00, 0x00, 0x00, 0x00, 0x00, 0x00, 0x00, 0x00, 0x00, 0x00,
  0x00, 0x00, 0x00, 0x00, 0x00, 0x00, 0x00, 0x00, 0x00, 0x00, 0x00, 0x00,
  0x00, 0x00, 0x00, 0x00, 0x00, 0x00, 0x00, 0x00, 0x00, 0x00, 0x00, 0x00,
  0x00, 0x00, 0x00, 0x00, 0x00, 0x00, 0x00, 0x00, 0x00, 0x00, 0x00, 0x00,
  0x00, 0x00, 0x00, 0x00, 0x00, 0x00, 0x00, 0x00, 0x00, 0x00, 0x00, 0x00,
  0x00, 0x00, 0x00, 0x00, 0x00, 0x00, 0x00, 0x00, 0x00, 0x00, 0x00, 0x00,
  0x00, 0x00, 0x00, 0x00, 0x00, 0x00, 0x00, 0x00, 0x00, 0x00, 0x00, 0x00,
  0x00, 0x00, 0x00, 0x00, 0x00, 0x00, 0x00, 0x00, 0x00, 0x00, 0x00, 0x00,
  0x00, 0x00, 0x00, 0x00, 0x00, 0x00, 0x00, 0x00, 0x00, 0x00, 0x00, 0x00,
  0x00, 0x00, 0x00, 0x00, 0x00, 0x00, 0x00, 0x00, 0x00, 0x00, 0x00, 0x00,
  0x00, 0x00, 0x00, 0x00, 0x00, 0x00, 0x00, 0x00, 0x00, 0x00, 0x00, 0x00,
  0x00, 0x00, 0x00, 0x00, 0x00, 0x00, 0x00, 0x00, 0x00, 0x00, 0x00, 0x00,
  0x00, 0x00, 0x00, 0x00, 0x00, 0x00, 0x00, 0x00, 0x00, 0x00, 0x00, 0x00,
  0x00, 0x00, 0x00, 0x00, 0x00, 0x00, 0x00, 0x00, 0x00, 0x00, 0x00, 0x00,
  0x00, 0x00, 0x00, 0x00, 0x00, 0x00, 0x00, 0x00, 0x00, 0x00, 0x00, 0x00,
  0x00, 0x00, 0x00, 0x00, 0x00, 0x00, 0x00, 0x00, 0x00, 0x00, 0x00, 0x00,
  0x00, 0x00, 0x00, 0x00, 0x00, 0x00, 0x00, 0x00, 0x00, 0x00, 0x00, 0x00,
  0x00, 0x00, 0x00, 0x00, 0x00, 0x00, 0x00, 0x00, 0x00, 0x00, 0x00, 0x00,
  0x00, 0x00, 0x00, 0x00, 0x00, 0x00, 0x00, 0x00, 0x00, 0x00, 0x00, 0x00,
  0x00, 0x00, 0x00, 0x00, 0x00, 0x00, 0x00, 0x00, 0x00, 0x00, 0x00, 0x00,
  0x00, 0x00, 0x00, 0x00, 0x00, 0x00, 0x00, 0x00, 0x20, 0x00, 0x00, 0x00,
  0x87, 0xf0, 0x98, 0x3b, 0xb4, 0x29, 0x34, 0x3b, 0x29, 0x8e, 0x8c, 0x3b,
  0xe8, 0x8f, 0x79, 0x3b, 0x08, 0x1b, 0x82, 0x3b, 0x0e, 0xe5, 0x77, 0x3b,
  0x53, 0x4b, 0xce, 0x3b, 0x9d, 0x48, 0x5b, 0x3b, 0xb4, 0x5e, 0xe2, 0x3b,
  0x2e, 0x85, 0xb6, 0x3b, 0x0c, 0xbc, 0x3f, 0x3b, 0x9a, 0x3e, 0xcd, 0x3b,
  0x39, 0x4d, 0x7f, 0x3b, 0x73, 0xc3, 0x9c, 0x3b, 0x70, 0x38, 0xa2, 0x3b,
  0x7d, 0x25, 0x77, 0x3b, 0x4a, 0xac, 0x3e, 0x3b, 0x4c, 0x22, 0x6d, 0x3b,
  0x96, 0x9f, 0x8b, 0x3b, 0xc5, 0xcf, 0x86, 0x3b, 0x53, 0x37, 0x91, 0x3b,
  0x6a, 0xe1, 0x6f, 0x3b, 0x0e, 0x4c, 0x7f, 0x3b, 0x12, 0x53, 0x53, 0x3b,
  0x59, 0x0b, 0x81, 0x3b, 0xa1, 0x5b, 0xb1, 0x3b, 0x4a, 0xd1, 0x95, 0x3b,
  0xe4, 0x23, 0x5f, 0x3b, 0x17, 0xc7, 0x3f, 0x3b, 0xde, 0xf2, 0x9e, 0x3b,
  0x4c, 0xb6, 0x84, 0x3b, 0xf8, 0xe7, 0x93, 0x3b, 0x23, 0x00, 0x00, 0x00,
  0x66, 0x75, 0x6e, 0x63, 0x74, 0x69, 0x6f, 0x6e, 0x61, 0x6c, 0x5f, 0x31,
  0x2f, 0x63, 0x6f, 0x6e, 0x76, 0x31, 0x64, 0x5f, 0x31, 0x5f, 0x32, 0x2f,
  0x63, 0x6f, 0x6e, 0x76, 0x6f, 0x6c, 0x75, 0x74, 0x69, 0x6f, 0x6e, 0x00,
  0x04, 0x00, 0x00, 0x00, 0x20, 0x00, 0x00, 0x00, 0x01, 0x00, 0x00, 0x00,
  0x03, 0x00, 0x00, 0x00, 0x10, 0x00, 0x00, 0x00, 0x76, 0xf6, 0xff, 0xff,
  0x00, 0x00, 0x00, 0x01, 0x14, 0x00, 0x00, 0x00, 0xa8, 0x01, 0x00, 0x00,
  0x0e, 0x00, 0x00, 0x00, 0x00, 0x00, 0x00, 0x02, 0x50, 0x02, 0x00, 0x00,
  0xdc, 0xf5, 0xff, 0xff, 0x08, 0x00, 0x00, 0x00, 0x0c, 0x01, 0x00, 0x00,
  0x20, 0x00, 0x00, 0x00, 0x00, 0x00, 0x00, 0x00, 0x00, 0x00, 0x00, 0x00,
  0x00, 0x00, 0x00, 0x00, 0x00, 0x00, 0x00, 0x00, 0x00, 0x00, 0x00, 0x00,
  0x00, 0x00, 0x00, 0x00, 0x00, 0x00, 0x00, 0x00, 0x00, 0x00, 0x00, 0x00,
  0x00, 0x00, 0x00, 0x00, 0x00, 0x00, 0x00, 0x00, 0x00, 0x00, 0x00, 0x00,
  0x00, 0x00, 0x00, 0x00, 0x00, 0x00, 0x00, 0x00, 0x00, 0x00, 0x00, 0x00,
  0x00, 0x00, 0x00, 0x00, 0x00, 0x00, 0x00, 0x00, 0x00, 0x00, 0x00, 0x00,
  0x00, 0x00, 0x00, 0x00, 0x00, 0x00, 0x00, 0x00, 0x00, 0x00, 0x00, 0x00,
  0x00, 0x00, 0x00, 0x00, 0x00, 0x00, 0x00, 0x00, 0x00, 0x00, 0x00, 0x00,
  0x00, 0x00, 0x00, 0x00, 0x00, 0x00, 0x00, 0x00, 0x00, 0x00, 0x00, 0x00,
  0x00, 0x00, 0x00, 0x00, 0x00, 0x00, 0x00, 0x00, 0x00, 0x00, 0x00, 0x00,
  0x00, 0x00, 0x00, 0x00, 0x00, 0x00, 0x00, 0x00, 0x00, 0x00, 0x00, 0x00,
  0x00, 0x00, 0x00, 0x00, 0x00, 0x00, 0x00, 0x00, 0x00, 0x00, 0x00, 0x00,
  0x00, 0x00, 0x00, 0x00, 0x00, 0x00, 0x00, 0x00, 0x00, 0x00, 0x00, 0x00,
  0x00, 0x00, 0x00, 0x00, 0x00, 0x00, 0x00, 0x00, 0x00, 0x00, 0x00, 0x00,
  0x00, 0x00, 0x00, 0x00, 0x00, 0x00, 0x00, 0x00, 0x00, 0x00, 0x00, 0x00,
  0x00, 0x00, 0x00, 0x00, 0x00, 0x00, 0x00, 0x00, 0x00, 0x00, 0x00, 0x00,
  0x00, 0x00, 0x00, 0x00, 0x00, 0x00, 0x00, 0x00, 0x00, 0x00, 0x00, 0x00,
  0x00, 0x00, 0x00, 0x00, 0x00, 0x00, 0x00, 0x00, 0x00, 0x00, 0x00, 0x00,
  0x00, 0x00, 0x00, 0x00, 0x00, 0x00, 0x00, 0x00, 0x00, 0x00, 0x00, 0x00,
  0x00, 0x00, 0x00, 0x00, 0x00, 0x00, 0x00, 0x00, 0x00, 0x00, 0x00, 0x00,
  0x00, 0x00, 0x00, 0x00, 0x00, 0x00, 0x00, 0x00, 0x00, 0x00, 0x00, 0x00,
  0x00, 0x00, 0x00, 0x00, 0x00, 0x00, 0x00, 0x00, 0x00, 0x00, 0x00, 0x00,
  0x20, 0x00, 0x00, 0x00, 0x02, 0xa3, 0x9c, 0x38, 0xa9, 0x84, 0x38, 0x38,
  0x00, 0xf4, 0x8f, 0x38, 0x59, 0x98, 0x7f, 0x38, 0x34, 0x40, 0x85, 0x38,
  0x2d, 0xe3, 0x7d, 0x38, 0xff, 0x47, 0xd3, 0x38, 0xac, 0x95, 0x60, 0x38,
  0x9e, 0xd7, 0xe7, 0x38, 0xb9, 0xee, 0xba, 0x38, 0x9d, 0x5e, 0x44, 0x38,
  0xc7, 0x34, 0xd2, 0x38, 0x97, 0xbc, 0x82, 0x38, 0x98, 0x8d, 0xa0, 0x38,
  0x5b, 0x24, 0xa6, 0x38, 0xfa, 0x1e, 0x7d, 0x38, 0x4a, 0x48, 0x43, 0x38,
  0xd3, 0xdd, 0x72, 0x38, 0xa9, 0xff, 0x8e, 0x38, 0x10, 0x12, 0x8a, 0x38,
  0x02, 0xba, 0x94, 0x38, 0xf0, 0xad, 0x75, 0x38, 0xfe, 0xbb, 0x82, 0x38,
  0xdf, 0x6e, 0x58, 0x38, 0xf4, 0x29, 0x84, 0x38, 0x3a, 0xa5, 0xb5, 0x38,
  0x73, 0x70, 0x99, 0x38, 0xd1, 0x88, 0x64, 0x38, 0xed, 0x69, 0x44, 0x38,
  0x89, 0xca, 0xa2, 0x38, 0x99, 0xeb, 0x87, 0x38, 0x4d, 0x7b, 0x97, 0x38,
  0xac, 0x00, 0x00, 0x00, 0x66, 0x75, 0x6e, 0x63, 0x74, 0x69, 0x6f, 0x6e,
  0x61, 0x6c, 0x5f, 0x31, 0x2f, 0x63, 0x6f, 0x6e, 0x76, 0x31, 0x64, 0x5f,
  0x31, 0x5f, 0x32, 0x2f, 0x52, 0x65, 0x6c, 0x75, 0x3b, 0x66, 0x75, 0x6e,
  0x63, 0x74, 0x69, 0x6f, 0x6e, 0x61, 0x6c, 0x5f, 0x31, 0x2f, 0x63, 0x6f,
  0x6e, 0x76, 0x31, 0x64, 0x5f, 0x31, 0x5f, 0x32, 0x2f, 0x42, 0x69, 0x61,
  0x73, 0x41, 0x64, 0x64, 0x3b, 0x66, 0x75, 0x6e, 0x63, 0x74, 0x69, 0x6f,
  0x6e, 0x61, 0x6c, 0x5f, 0x31, 0x2f, 0x63, 0x6f, 0x6e, 0x76, 0x31, 0x64,
  0x5f, 0x31, 0x5f, 0x32, 0x2f, 0x63, 0x6f, 0x6e, 0x76, 0x6f, 0x6c, 0x75,
  0x74, 0x69, 0x6f, 0x6e, 0x2f, 0x53, 0x71, 0x75, 0x65, 0x65, 0x7a, 0x65,
  0x3b, 0x66, 0x75, 0x6e, 0x63, 0x74, 0x69, 0x6f, 0x6e, 0x61, 0x6c, 0x5f,
  0x31, 0x2f, 0x63, 0x6f, 0x6e, 0x76, 0x31, 0x64, 0x5f, 0x31, 0x5f, 0x32,
  0x2f, 0x53, 0x71, 0x75, 0x65, 0x65, 0x7a, 0x65, 0x3b, 0x66, 0x75, 0x6e,
  0x63, 0x74, 0x69, 0x6f, 0x6e, 0x61, 0x6c, 0x5f, 0x31, 0x2f, 0x63, 0x6f,
  0x6e, 0x76, 0x31, 0x64, 0x5f, 0x31, 0x5f, 0x32, 0x2f, 0x63, 0x6f, 0x6e,
  0x76, 0x6f, 0x6c, 0x75, 0x74, 0x69, 0x6f, 0x6e, 0x00, 0x00, 0x00, 0x00,
  0x01, 0x00, 0x00, 0x00, 0x20, 0x00, 0x00, 0x00, 0xe6, 0xf8, 0xff, 0xff,
  0x00, 0x00, 0x00, 0x01, 0x14, 0x00, 0x00, 0x00, 0xa8, 0x01, 0x00, 0x00,
  0x0d, 0x00, 0x00, 0x00, 0x00, 0x00, 0x00, 0x09, 0xbc, 0x01, 0x00, 0x00,
  0x4c, 0xf8, 0xff, 0xff, 0x08, 0x00, 0x00, 0x00, 0x0c, 0x01, 0x00, 0x00,
  0x20, 0x00, 0x00, 0x00, 0x00, 0x00, 0x00, 0x00, 0x00, 0x00, 0x00, 0x00,
  0x00, 0x00, 0x00, 0x00, 0x00, 0x00, 0x00, 0x00, 0x00, 0x00, 0x00, 0x00,
  0x00, 0x00, 0x00, 0x00, 0x00, 0x00, 0x00, 0x00, 0x00, 0x00, 0x00, 0x00,
  0x00, 0x00, 0x00, 0x00, 0x00, 0x00, 0x00, 0x00, 0x00, 0x00, 0x00, 0x00,
  0x00, 0x00, 0x00, 0x00, 0x00, 0x00, 0x00, 0x00, 0x00, 0x00, 0x00, 0x00,
  0x00, 0x00, 0x00, 0x00, 0x00, 0x00, 0x00, 0x00, 0x00, 0x00, 0x00, 0x00,
  0x00, 0x00, 0x00, 0x00, 0x00, 0x00, 0x00, 0x00, 0x00, 0x00, 0x00, 0x00,
  0x00, 0x00, 0x00, 0x00, 0x00, 0x00, 0x00, 0x00, 0x00, 0x00, 0x00, 0x00,
  0x00, 0x00, 0x00, 0x00, 0x00, 0x00, 0x00, 0x00, 0x00, 0x00, 0x00, 0x00,
  0x00, 0x00, 0x00, 0x00, 0x00, 0x00, 0x00, 0x00, 0x00, 0x00, 0x00, 0x00,
  0x00, 0x00, 0x00, 0x00, 0x00, 0x00, 0x00, 0x00, 0x00, 0x00, 0x00, 0x00,
  0x00, 0x00, 0x00, 0x00, 0x00, 0x00, 0x00, 0x00, 0x00, 0x00, 0x00, 0x00,
  0x00, 0x00, 0x00, 0x00, 0x00, 0x00, 0x00, 0x00, 0x00, 0x00, 0x00, 0x00,
  0x00, 0x00, 0x00, 0x00, 0x00, 0x00, 0x00, 0x00, 0x00, 0x00, 0x00, 0x00,
  0x00, 0x00, 0x00, 0x00, 0x00, 0x00, 0x00, 0x00, 0x00, 0x00, 0x00, 0x00,
  0x00, 0x00, 0x00, 0x00, 0x00, 0x00, 0x00, 0x00, 0x00, 0x00, 0x00, 0x00,
  0x00, 0x00, 0x00, 0x00, 0x00, 0x00, 0x00, 0x00, 0x00, 0x00, 0x00, 0x00,
  0x00, 0x00, 0x00, 0x00, 0x00, 0x00, 0x00, 0x00, 0x00, 0x00, 0x00, 0x00,
  0x00, 0x00, 0x00, 0x00, 0x00, 0x00, 0x00, 0x00, 0x00, 0x00, 0x00, 0x00,
  0x00, 0x00, 0x00, 0x00, 0x00, 0x00, 0x00, 0x00, 0x00, 0x00, 0x00, 0x00,
  0x00, 0x00, 0x00, 0x00, 0x00, 0x00, 0x00, 0x00, 0x00, 0x00, 0x00, 0x00,
  0x00, 0x00, 0x00, 0x00, 0x00, 0x00, 0x00, 0x00, 0x00, 0x00, 0x00, 0x00,
  0x20, 0x00, 0x00, 0x00, 0x3d, 0xca, 0xb7, 0x3b, 0x37, 0x30, 0xef, 0x3b,
  0x8e, 0xed, 0x30, 0x3b, 0xf3, 0xeb, 0xb3, 0x3b, 0x6b, 0xe9, 0xed, 0x3b,
  0x09, 0xea, 0x8f, 0x3b, 0x85, 0x28, 0x20, 0x3b, 0x24, 0xc3, 0xd6, 0x3b,
  0x4f, 0xf2, 0x7e, 0x3b, 0x66, 0x8d, 0xc9, 0x3b, 0xea, 0xd4, 0xc9, 0x3b,
  0xf8, 0xba, 0xee, 0x3b, 0xea, 0x90, 0xb5, 0x3b, 0x10, 0x81, 0x1c, 0x3b,
  0xd0, 0x3f, 0x9e, 0x3b, 0xc1, 0xda, 0x05, 0x3c, 0xe5, 0x3d, 0x1b, 0x3b,
  0x77, 0x95, 0xe7, 0x3b, 0x8d, 0xde, 0xa7, 0x3b, 0xb2, 0x9d, 0xc1, 0x3b,
  0x8b, 0x72, 0xe6, 0x3b, 0x99, 0x30, 0xb7, 0x3b, 0xd0, 0xaa, 0xb9, 0x3b,
  0x49, 0xe6, 0x14, 0x3b, 0x33, 0x70, 0xad, 0x3b, 0xc2, 0x6c, 0xaf, 0x3b,
  0x52, 0xeb, 0x0c, 0x3b, 0xa5, 0x83, 0x1b, 0x3b, 0x0d, 0x35, 0x96, 0x3b,
  0x62, 0x9a, 0xbd, 0x3b, 0x1b, 0x75, 0xb6, 0x3b, 0x9f, 0x35, 0xd7, 0x3b,
  0x1b, 0x00, 0x00, 0x00, 0x66, 0x75, 0x6e, 0x63, 0x74, 0x69, 0x6f, 0x6e,
  0x61, 0x6c, 0x5f, 0x31, 0x2f, 0x64, 0x65, 0x6e, 0x73, 0x65, 0x5f, 0x31,
  0x2f, 0x4d, 0x61, 0x74, 0x4d, 0x75, 0x6c, 0x00, 0x02, 0x00, 0x00, 0x00,
  0x20, 0x00, 0x00, 0x00, 0x20, 0x00, 0x00, 0x00, 0xc6, 0xfa, 0xff, 0xff,
  0x00, 0x00, 0x00, 0x01, 0x14, 0x00, 0x00, 0x00, 0xa8, 0x01, 0x00, 0x00,
  0x0c, 0x00, 0x00, 0x00, 0x00, 0x00, 0x00, 0x02, 0xd8, 0x01, 0x00, 0x00,
  0x2c, 0xfa, 0xff, 0xff, 0x08, 0x00, 0x00, 0x00, 0x0c, 0x01, 0x00, 0x00,
  0x20, 0x00, 0x00, 0x00, 0x00, 0x00, 0x00, 0x00, 0x00, 0x00, 0x00, 0x00,
  0x00, 0x00, 0x00, 0x00, 0x00, 0x00, 0x00, 0x00, 0x00, 0x00, 0x00, 0x00,
  0x00, 0x00, 0x00, 0x00, 0x00, 0x00, 0x00, 0x00, 0x00, 0x00, 0x00, 0x00,
  0x00, 0x00, 0x00, 0x00, 0x00, 0x00, 0x00, 0x00, 0x00, 0x00, 0x00, 0x00,
  0x00, 0x00, 0x00, 0x00, 0x00, 0x00, 0x00, 0x00, 0x00, 0x00, 0x00, 0x00,
  0x00, 0x00, 0x00, 0x00, 0x00, 0x00, 0x00, 0x00, 0x00, 0x00, 0x00, 0x00,
  0x00, 0x00, 0x00, 0x00, 0x00, 0x00, 0x00, 0x00, 0x00, 0x00, 0x00, 0x00,
  0x00, 0x00, 0x00, 0x00, 0x00, 0x00, 0x00, 0x00, 0x00, 0x00, 0x00, 0x00,
  0x00, 0x00, 0x00, 0x00, 0x00, 0x00, 0x00, 0x00, 0x00, 0x00, 0x00, 0x00,
  0x00, 0x00, 0x00, 0x00, 0x00, 0x00, 0x00, 0x00, 0x00, 0x00, 0x00, 0x00,
  0x00, 0x00, 0x00, 0x00, 0x00, 0x00, 0x00, 0x00, 0x00, 0x00, 0x00, 0x00,
  0x00, 0x00, 0x00, 0x00, 0x00, 0x00, 0x00, 0x00, 0x00, 0x00, 0x00, 0x00,
  0x00, 0x00, 0x00, 0x00, 0x00, 0x00, 0x00, 0x00, 0x00, 0x00, 0x00, 0x00,
  0x00, 0x00, 0x00, 0x00, 0x00, 0x00, 0x00, 0x00, 0x00, 0x00, 0x00, 0x00,
  0x00, 0x00, 0x00, 0x00, 0x00, 0x00, 0x00, 0x00, 0x00, 0x00, 0x00, 0x00,
  0x00, 0x00, 0x00, 0x00, 0x00, 0x00, 0x00, 0x00, 0x00, 0x00, 0x00, 0x00,
  0x00, 0x00, 0x00, 0x00, 0x00, 0x00, 0x00, 0x00, 0x00, 0x00, 0x00, 0x00,
  0x00, 0x00, 0x00, 0x00, 0x00, 0x00, 0x00, 0x00, 0x00, 0x00, 0x00, 0x00,
  0x00, 0x00, 0x00, 0x00, 0x00, 0x00, 0x00, 0x00, 0x00, 0x00, 0x00, 0x00,
  0x00, 0x00, 0x00, 0x00, 0x00, 0x00, 0x00, 0x00, 0x00, 0x00, 0x00, 0x00,
  0x00, 0x00, 0x00, 0x00, 0x00, 0x00, 0x00, 0x00, 0x00, 0x00, 0x00, 0x00,
  0x00, 0x00, 0x00, 0x00, 0x00, 0x00, 0x00, 0x00, 0x00, 0x00, 0x00, 0x00,
  0x20, 0x00, 0x00, 0x00, 0x02, 0xf2, 0x98, 0x38, 0xe3, 0x0b, 0xc7, 0x38,
  0x24, 0x3c, 0x13, 0x38, 0xea, 0xb9, 0x95, 0x38, 0xef, 0xfb, 0xc5, 0x38,
  0x01, 0x86, 0x6f, 0x38, 0x96, 0x47, 0x05, 0x38, 0x3d, 0xb8, 0xb2, 0x38,
  0xf5, 0x28, 0x54, 0x38, 0x0a, 0xba, 0xa7, 0x38, 0x8d, 0xf5, 0xa7, 0x38,
  0x51, 0xaa, 0xc6, 0x38, 0x3b, 0x18, 0x97, 0x38, 0x1f, 0x3d, 0x02, 0x38,
  0xe6, 0xb0, 0x83, 0x38, 0xd6, 0xc7, 0xde, 0x38, 0x31, 0x30, 0x01, 0x38,
  0xda, 0xb7, 0xc0, 0x38, 0x53, 0xb2, 0x8b, 0x38, 0x4f, 0x1f, 0xa1, 0x38,
  0xc1, 0xc5, 0xbf, 0x38, 0x27, 0x72, 0x98, 0x38, 0xee, 0x81, 0x9a, 0x38,
  0x21, 0xd2, 0xf7, 0x37, 0xb6, 0x54, 0x90, 0x38, 0xec, 0xfb, 0x91, 0x38,
  0xec, 0x89, 0xea, 0x37, 0x3c, 0x6a, 0x01, 0x38, 0x4c, 0xff, 0x79, 0x38,
  0x67, 0xc8, 0x9d, 0x38, 0x20, 0xd6, 0x97, 0x38, 0x81, 0x17, 0xb3, 0x38,
  0x36, 0x00, 0x00, 0x00, 0x66, 0x75, 0x6e, 0x63, 0x74, 0x69, 0x6f, 0x6e,
  0x61, 0x6c, 0x5f, 0x31, 0x2f, 0x64, 0x65, 0x6e, 0x73, 0x65, 0x5f, 0x31,
  0x2f, 0x52, 0x65, 0x6c, 0x75, 0x3b, 0x66, 0x75, 0x6e, 0x63, 0x74, 0x69,
  0x6f, 0x6e, 0x61, 0x6c, 0x5f, 0x31, 0x2f, 0x64, 0x65, 0x6e, 0x73, 0x65,
  0x5f, 0x31, 0x2f, 0x42, 0x69, 0x61, 0x73, 0x41, 0x64, 0x64, 0x00, 0x00,
  0x01, 0x00, 0x00, 0x00, 0x20, 0x00, 0x00, 0x00, 0xbe, 0xfc, 0xff, 0xff,
  0x00, 0x00, 0x00, 0x01, 0x14, 0x00, 0x00, 0x00, 0x64, 0x00, 0x00, 0x00,
  0x0b, 0x00, 0x00, 0x00, 0x00, 0x00, 0x00, 0x09, 0x7c, 0x00, 0x00, 0x00,
  0x24, 0xfc, 0xff, 0xff, 0x08, 0x00, 0x00, 0x00, 0x34, 0x00, 0x00, 0x00,
  0x05, 0x00, 0x00, 0x00, 0x00, 0x00, 0x00, 0x00, 0x00, 0x00, 0x00, 0x00,
  0x00, 0x00, 0x00, 0x00, 0x00, 0x00, 0x00, 0x00, 0x00, 0x00, 0x00, 0x00,
  0x00, 0x00, 0x00, 0x00, 0x00, 0x00, 0x00, 0x00, 0x00, 0x00, 0x00, 0x00,
  0x00, 0x00, 0x00, 0x00, 0x00, 0x00, 0x00, 0x00, 0x00, 0x00, 0x00, 0x00,
  0x05, 0x00, 0x00, 0x00, 0xf5, 0x50, 0x1d, 0x3c, 0x22, 0x06, 0x11, 0x3c,
  0xb4, 0xfb, 0x0e, 0x3c, 0x64, 0x20, 0x03, 0x3c, 0xc1, 0x50, 0xee, 0x3b,
  0x1c, 0x00, 0x00, 0x00, 0x66, 0x75, 0x6e, 0x63, 0x74, 0x69, 0x6f, 0x6e,
  0x61, 0x6c, 0x5f, 0x31, 0x2f, 0x6f, 0x75, 0x74, 0x70, 0x75, 0x74, 0x5f,
  0x31, 0x2f, 0x4d, 0x61, 0x74, 0x4d, 0x75, 0x6c, 0x00, 0x00, 0x00, 0x00,
  0x02, 0x00, 0x00, 0x00, 0x05, 0x00, 0x00, 0x00, 0x20, 0x00, 0x00, 0x00,
  0x5e, 0xfd, 0xff, 0xff, 0x00, 0x00, 0x00, 0x01, 0x14, 0x00, 0x00, 0x00,
  0x60, 0x00, 0x00, 0x00, 0x0a, 0x00, 0x00, 0x00, 0x00, 0x00, 0x00, 0x02,
  0x78, 0x00, 0x00, 0x00, 0xc4, 0xfc, 0xff, 0xff, 0x08, 0x00, 0x00, 0x00,
  0x30, 0x00, 0x00, 0x00, 0x05, 0x00, 0x00, 0x00, 0x00, 0x00, 0x00, 0x00,
  0x00, 0x00, 0x00, 0x00, 0x00, 0x00, 0x00, 0x00, 0x00, 0x00, 0x00, 0x00,
  0x00, 0x00, 0x00, 0x00, 0x00, 0x00, 0x00, 0x00, 0x00, 0x00, 0x00, 0x00,
  0x00, 0x00, 0x00, 0x00, 0x00, 0x00, 0x00, 0x00, 0x00, 0x00, 0x00, 0x00,
  0x05, 0x00, 0x00, 0x00, 0x62, 0x4d, 0x8c, 0x39, 0xe5, 0x56, 0x81, 0x39,
  0xee, 0x09, 0x7f, 0x39, 0xda, 0xe3, 0x69, 0x39, 0x94, 0x8a, 0x54, 0x39,
  0x1d, 0x00, 0x00, 0x00, 0x66, 0x75, 0x6e, 0x63, 0x74, 0x69, 0x6f, 0x6e,
  0x61, 0x6c, 0x5f, 0x31, 0x2f, 0x6f, 0x75, 0x74, 0x70, 0x75, 0x74, 0x5f,
  0x31, 0x2f, 0x42, 0x69, 0x61, 0x73, 0x41, 0x64, 0x64, 0x00, 0x00, 0x00,
  0x01, 0x00, 0x00, 0x00, 0x05, 0x00, 0x00, 0x00, 0xf6, 0xfd, 0xff, 0xff,
  0x00, 0x00, 0x00, 0x01, 0x14, 0x00, 0x00, 0x00, 0x14, 0x00, 0x00, 0x00,
  0x09, 0x00, 0x00, 0x00, 0x00, 0x00, 0x00, 0x02, 0x38, 0x00, 0x00, 0x00,
  0xe0, 0xfd, 0xff, 0xff, 0x2b, 0x00, 0x00, 0x00, 0x66, 0x75, 0x6e, 0x63,
  0x74, 0x69, 0x6f, 0x6e, 0x61, 0x6c, 0x5f, 0x31, 0x2f, 0x63, 0x6f, 0x6e,
  0x76, 0x31, 0x64, 0x5f, 0x31, 0x5f, 0x32, 0x2f, 0x63, 0x6f, 0x6e, 0x76,
  0x6f, 0x6c, 0x75, 0x74, 0x69, 0x6f, 0x6e, 0x2f, 0x53, 0x71, 0x75, 0x65,
  0x65, 0x7a, 0x65, 0x00, 0x01, 0x00, 0x00, 0x00, 0x03, 0x00, 0x00, 0x00,
  0x4e, 0xfe, 0xff, 0xff, 0x00, 0x00, 0x00, 0x01, 0x14, 0x00, 0x00, 0x00,
  0x14, 0x00, 0x00, 0x00, 0x08, 0x00, 0x00, 0x00, 0x00, 0x00, 0x00, 0x02,
  0x3c, 0x00, 0x00, 0x00, 0x38, 0xfe, 0xff, 0xff, 0x2e, 0x00, 0x00, 0x00,
  0x66, 0x75, 0x6e, 0x63, 0x74, 0x69, 0x6f, 0x6e, 0x61, 0x6c, 0x5f, 0x31,
  0x2f, 0x6d, 0x61, 0x78, 0x5f, 0x70, 0x6f, 0x6f, 0x6c, 0x69, 0x6e, 0x67,
  0x31, 0x64, 0x5f, 0x31, 0x2f, 0x4d, 0x61, 0x78, 0x50, 0x6f, 0x6f, 0x6c,
  0x31, 0x64, 0x2f, 0x53, 0x71, 0x75, 0x65, 0x65, 0x7a, 0x65, 0x00, 0x00,
  0x01, 0x00, 0x00, 0x00, 0x03, 0x00, 0x00, 0x00, 0xaa, 0xfe, 0xff, 0xff,
  0x00, 0x00, 0x00, 0x01, 0x14, 0x00, 0x00, 0x00, 0x14, 0x00, 0x00, 0x00,
  0x07, 0x00, 0x00, 0x00, 0x00, 0x00, 0x00, 0x02, 0x38, 0x00, 0x00, 0x00,
  0x94, 0xfe, 0xff, 0xff, 0x29, 0x00, 0x00, 0x00, 0x66, 0x75, 0x6e, 0x63,
  0x74, 0x69, 0x6f, 0x6e, 0x61, 0x6c, 0x5f, 0x31, 0x2f, 0x63, 0x6f, 0x6e,
  0x76, 0x31, 0x64, 0x5f, 0x31, 0x2f, 0x63, 0x6f, 0x6e, 0x76, 0x6f, 0x6c,
  0x75, 0x74, 0x69, 0x6f, 0x6e, 0x2f, 0x53, 0x71, 0x75, 0x65, 0x65, 0x7a,
  0x65, 0x00, 0x00, 0x00, 0x01, 0x00, 0x00, 0x00, 0x03, 0x00, 0x00, 0x00,
  0x02, 0xff, 0xff, 0xff, 0x00, 0x00, 0x00, 0x01, 0x14, 0x00, 0x00, 0x00,
  0x14, 0x00, 0x00, 0x00, 0x06, 0x00, 0x00, 0x00, 0x00, 0x00, 0x00, 0x02,
  0x1c, 0x00, 0x00, 0x00, 0xec, 0xfe, 0xff, 0xff, 0x0e, 0x00, 0x00, 0x00,
  0x61, 0x72, 0x69, 0x74, 0x68, 0x2e, 0x63, 0x6f, 0x6e, 0x73, 0x74, 0x61,
  0x6e, 0x74, 0x00, 0x00, 0x00, 0x00, 0x00, 0x00, 0x3a, 0xff, 0xff, 0xff,
  0x00, 0x00, 0x00, 0x01, 0x14, 0x00, 0x00, 0x00, 0x14, 0x00, 0x00, 0x00,
  0x03, 0x00, 0x00, 0x00, 0x00, 0x00, 0x00, 0x02, 0x1c, 0x00, 0x00, 0x00,
  0x24, 0xff, 0xff, 0xff, 0x0f, 0x00, 0x00, 0x00, 0x61, 0x72, 0x69, 0x74,
  0x68, 0x2e, 0x63, 0x6f, 0x6e, 0x73, 0x74, 0x61, 0x6e, 0x74, 0x31, 0x00,
  0x00, 0x00, 0x00, 0x00, 0x72, 0xff, 0xff, 0xff, 0x00, 0x00, 0x00, 0x01,
  0x14, 0x00, 0x00, 0x00, 0x14, 0x00, 0x00, 0x00, 0x04, 0x00, 0x00, 0x00,
  0x00, 0x00, 0x00, 0x02, 0x34, 0x00, 0x00, 0x00, 0x5c, 0xff, 0xff, 0xff,
  0x26, 0x00, 0x00, 0x00, 0x66, 0x75, 0x6e, 0x63, 0x74, 0x69, 0x6f, 0x6e,
  0x61, 0x6c, 0x5f, 0x31, 0x2f, 0x72, 0x65, 0x73, 0x68, 0x61, 0x70, 0x65,
  0x5f, 0x31, 0x2f, 0x52, 0x65, 0x73, 0x68, 0x61, 0x70, 0x65, 0x2f, 0x73,
  0x68, 0x61, 0x70, 0x65, 0x2f, 0x31, 0x00, 0x00, 0x00, 0x00, 0x00, 0x00,
  0xc2, 0xff, 0xff, 0xff, 0x00, 0x00, 0x00, 0x01, 0x14, 0x00, 0x00, 0x00,
  0x14, 0x00, 0x00, 0x00, 0x03, 0x00, 0x00, 0x00, 0x00, 0x00, 0x00, 0x02,
  0x1c, 0x00, 0x00, 0x00, 0xac, 0xff, 0xff, 0xff, 0x0f, 0x00, 0x00, 0x00,
  0x61, 0x72, 0x69, 0x74, 0x68, 0x2e, 0x63, 0x6f, 0x6e, 0x73, 0x74, 0x61,
  0x6e, 0x74, 0x32, 0x00, 0x01, 0x00, 0x00, 0x00, 0x01, 0x00, 0x00, 0x00,
  0x00, 0x00, 0x16, 0x00, 0x1c, 0x00, 0x18, 0x00, 0x17, 0x00, 0x10, 0x00,
  0x0c, 0x00, 0x08, 0x00, 0x00, 0x00, 0x00, 0x00, 0x00, 0x00, 0x07, 0x00,
  0x16, 0x00, 0x00, 0x00, 0x00, 0x00, 0x00, 0x01, 0x18, 0x00, 0x00, 0x00,
  0x18, 0x00, 0x00, 0x00, 0x02, 0x00, 0x00, 0x00, 0x00, 0x00, 0x00, 0x02,
  0x3c, 0x00, 0x00, 0x00, 0x04, 0x00, 0x04, 0x00, 0x04, 0x00, 0x00, 0x00,
  0x2a, 0x00, 0x00, 0x00, 0x66, 0x75, 0x6e, 0x63, 0x74, 0x69, 0x6f, 0x6e,
  0x61, 0x6c, 0x5f, 0x31, 0x2f, 0x72, 0x65, 0x73, 0x68, 0x61, 0x70, 0x65,
  0x5f, 0x31, 0x2f, 0x73, 0x74, 0x72, 0x69, 0x64, 0x65, 0x64, 0x5f, 0x73,
  0x6c, 0x69, 0x63, 0x65, 0x2f, 0x73, 0x74, 0x61, 0x63, 0x6b, 0x00, 0x00,
  0x01, 0x00, 0x00, 0x00, 0x01, 0x00, 0x00, 0x00, 0x00, 0x00, 0x16, 0x00,
  0x20, 0x00, 0x1c, 0x00, 0x1b, 0x00, 0x14, 0x00, 0x10, 0x00, 0x0c, 0x00,
  0x00, 0x00, 0x00, 0x00, 0x08, 0x00, 0x07, 0x00, 0x16, 0x00, 0x00, 0x00,
  0x00, 0x00, 0x00, 0x01, 0x18, 0x00, 0x00, 0x00, 0x2c, 0x00, 0x00, 0x00,
  0x48, 0x00, 0x00, 0x00, 0x01, 0x00, 0x00, 0x00, 0x00, 0x00, 0x00, 0x09,
  0x58, 0x00, 0x00, 0x00, 0x02, 0x00, 0x00, 0x00, 0xff, 0xff, 0xff, 0xff,
  0x10, 0x00, 0x00, 0x00, 0x0c, 0x00, 0x0c, 0x00, 0x00, 0x00, 0x00, 0x00,
  0x08, 0x00, 0x04, 0x00, 0x0c, 0x00, 0x00, 0x00, 0x08, 0x00, 0x00, 0x00,
  0x10, 0x00, 0x00, 0x00, 0x01, 0x00, 0x00, 0x00, 0x04, 0x00, 0x00, 0x00,
  0x00, 0x00, 0x00, 0x00, 0x01, 0x00, 0x00, 0x00, 0xb0, 0x11, 0xa2, 0x3c,
  0x17, 0x00, 0x00, 0x00, 0x73, 0x65, 0x72, 0x76, 0x69, 0x6e, 0x67, 0x5f,
  0x64, 0x65, 0x66, 0x61, 0x75, 0x6c, 0x74, 0x5f, 0x69, 0x6e, 0x70, 0x75,
  0x74, 0x3a, 0x30, 0x00, 0x02, 0x00, 0x00, 0x00, 0x01, 0x00, 0x00, 0x00,
  0x10, 0x00, 0x00, 0x00, 0x0a, 0x00, 0x00, 0x00, 0xc0, 0x00, 0x00, 0x00,
  0xa4, 0x00, 0x00, 0x00, 0x94, 0x00, 0x00, 0x00, 0x84, 0x00, 0x00, 0x00,
  0x74, 0x00, 0x00, 0x00, 0x60, 0x00, 0x00, 0x00, 0x40, 0x00, 0x00, 0x00,
  0x2c, 0x00, 0x00, 0x00, 0x18, 0x00, 0x00, 0x00, 0x04, 0x00, 0x00, 0x00,
  0xc0, 0xff, 0xff, 0xff, 0x19, 0x00, 0x00, 0x00, 0x02, 0x00, 0x00, 0x00,
  0x00, 0x00, 0x00, 0x19, 0xd0, 0xff, 0xff, 0xff, 0x09, 0x00, 0x00, 0x00,
  0x04, 0x00, 0x00, 0x00, 0x00, 0x00, 0x00, 0x09, 0xe0, 0xff, 0xff, 0xff,
  0x28, 0x00, 0x00, 0x00, 0x02, 0x00, 0x00, 0x00, 0x00, 0x00, 0x00, 0x28,
  0xf0, 0xff, 0xff, 0xff, 0x11, 0x00, 0x00, 0x00, 0x02, 0x00, 0x00, 0x00,
  0x00, 0x00, 0x00, 0x11, 0x0c, 0x00, 0x10, 0x00, 0x0f, 0x00, 0x00, 0x00,
  0x08, 0x00, 0x04, 0x00, 0x0c, 0x00, 0x00, 0x00, 0x03, 0x00, 0x00, 0x00,
  0x03, 0x00, 0x00, 0x00, 0x00, 0x00, 0x00, 0x03, 0xd0, 0xff, 0xff, 0xff,
  0x46, 0x00, 0x00, 0x00, 0x00, 0x00, 0x00, 0x46, 0xdc, 0xff, 0xff, 0xff,
  0x16, 0x00, 0x00, 0x00, 0x00, 0x00, 0x00, 0x16, 0xe8, 0xff, 0xff, 0xff,
  0x53, 0x00, 0x00, 0x00, 0x00, 0x00, 0x00, 0x53, 0xf4, 0xff, 0xff, 0xff,
  0x2d, 0x00, 0x00, 0x00, 0x00, 0x00, 0x00, 0x2d, 0x0c, 0x00, 0x0c, 0x00,
  0x0b, 0x00, 0x00, 0x00, 0x00, 0x00, 0x04, 0x00, 0x0c, 0x00, 0x00, 0x00,
  0x4d, 0x00, 0x00, 0x00, 0x00, 0x00, 0x00, 0x4d,
};
const unsigned int g_cough_model_data_len = 12152;